<unk>	0
<s>	0
</s>	0
NE	-0
▁(	-1
▁)	-2
▁t	-3
in	-4
▁.	-5
er	-6
▁s	-7
on	-8
re	-9
▁a	-10
at	-11
▁,	-12
LI	-13
▁c	-14
LINE	-15
NEW	-16
▁NEW	-17
DE	-18
en	-19
▁=	-20
▁i	-21
or	-22
▁th	-23
el	-24
es	-25
et	-26
▁p	-27
al	-28
▁f	-29
▁I	-30
▁'	-31
▁d	-32
le	-33
NT	-34
DENT	-35
▁"	-36
ou	-37
▁n	-38
▁;	-39
ion	-40
ing	-41
▁re	-42
an	-43
st	-44
ct	-45
it	-46
▁w	-47
ar	-48
▁m	-49
▁:	-50
▁in	-51
▁b	-52
▁the	-53
▁sel	-54
ro	-55
ed	-56
▁self	-57
ic	-58
am	-59
▁g	-60
▁}	-61
▁{	-62
se	-63
▁l	-64
ent	-65
ex	-66
▁to	-67
ur	-68
ss	-69
od	-70
▁o	-71
▁DE	-72
ut	-73
▁IN	-74
▁INDENT	-75
▁DEDENT	-76
▁v	-77
id	-78
▁h	-79
ce	-80
is	-81
▁get	-82
tr	-83
nd	-84
il	-85
▁S	-86
▁[	-87
▁_	-88
om	-89
ate	-90
ul	-91
▁is	-92
ot	-93
▁u	-94
▁]	-95
ame	-96
pt	-97
ue	-98
urn	-99
est	-100
▁if	-101
▁ret	-102
ef	-103
▁T	-104
ect	-105
ad	-106
▁return	-107
ch	-108
ag	-109
em	-110
ol	-111
ow	-112
la	-113
qu	-114
ck	-115
ub	-116
ew	-117
lic	-118
▁y	-119
▁1	-120
pe	-121
▁for	-122
ert	-123
▁<	-124
ist	-125
ve	-126
▁con	-127
as	-128
im	-129
▁def	-130
▁and	-131
ble	-132
um	-133
nt	-134
ig	-135
▁st	-136
▁it	-137
▁0	-138
▁this	-139
▁you	-140
ra	-141
▁ex	-142
ation	-143
tring	-144
ode	-145
▁A	-146
pp	-147
▁C	-148
▁of	-149
ile	-150
th	-151
▁pub	-152
ke	-153
▁-	-154
lo	-155
ri	-156
▁public	-157
ext	-158
▁+	-159
un	-160
ata	-161
▁new	-162
ess	-163
▁e	-164
age	-165
ith	-166
▁N	-167
▁pro	-168
▁on	-169
out	-170
alue	-171
ption	-172
▁r	-173
ype	-174
ver	-175
▁wh	-176
ction	-177
ult	-178
▁ass	-179
end	-180
ly	-181
▁P	-182
ter	-183
▁not	-184
oo	-185
lass	-186
▁j	-187
ject	-188
▁set	-189
▁/	-190
▁F	-191
ser	-192
▁an	-193
▁assert	-194
Ex	-195
▁res	-196
able	-197
▁>	-198
ec	-199
▁ch	-200
dd	-201
▁tr	-202
and	-203
▁that	-204
if	-205
▁M	-206
one	-207
▁String	-208
iz	-209
▁Th	-210
▁with	-211
ort	-212
▁2	-213
ers	-214
▁int	-215
ull	-216
▁el	-217
▁do	-218
ir	-219
av	-220
put	-221
);	-222
ath	-223
ment	-224
▁be	-225
▁com	-226
ay	-227
ror	-228
ld	-229
int	-230
▁al	-231
▁add	-232
art	-233
ang	-234
ap	-235
rom	-236
▁H	-237
▁test	-238
▁D	-239
▁lo	-240
▁B	-241
▁R	-242
▁%	-243
bject	-244
ave	-245
▁ar	-246
row	-247
▁can	-248
ception	-249
▁cont	-250
▁or	-251
ack	-252
Con	-253
▁==	-254
oid	-255
ere	-256
▁O	-257
00	-258
ime	-259
ase	-260
eth	-261
ind	-262
ine	-263
▁as	-264
▁name	-265
ple	-266
St	-267
▁data	-268
qual	-269
▁void	-270
ain	-271
▁value	-272
our	-273
all	-274
▁app	-275
ore	-276
pl	-277
▁L	-278
ould	-279
ht	-280
▁null	-281
="	-282
li	-283
▁sh	-284
ild	-285
Exception	-286
▁class	-287
()	-288
iv	-289
▁*	-290
▁have	-291
▁J	-292
cri	-293
▁id	-294
quest	-295
get	-296
op	-297
In	-298
ork	-299
▁im	-300
ure	-301
ant	-302
▁None	-303
name	-304
▁x	-305
us	-306
key	-307
eld	-308
ize	-309
ield	-310
▁E	-311
▁my	-312
act	-313
ep	-314
pon	-315
▁from	-316
▁but	-317
unction	-318
▁us	-319
orm	-320
▁W	-321
ray	-322
ance	-323
Name	-324
atch	-325
▁out	-326
ity	-327
con	-328
per	-329
▁par	-330
ethod	-331
ach	-332
alse	-333
os	-334
ire	-335
▁!	-336
▁at	-337
ite	-338
inal	-339
▁code	-340
▁else	-341
ord	-342
ust	-343
ead	-344
ill	-345
ib	-346
▁cre	-347
ava	-348
ab	-349
▁k	-350
▁U	-351
cess	-352
Id	-353
ice	-354
▁su	-355
ial	-356
are	-357
▁ma	-358
▁3	-359
gs	-360
ount	-361
fer	-362
▁try	-363
oc	-364
rou	-365
cript	-366
ost	-367
▁result	-368
fig	-369
▁use	-370
▁file	-371
Equal	-372
▁@	-373
▁G	-374
▁mod	-375
ory	-376
vent	-377
ery	-378
▁your	-379
eck	-380
List	-381
rue	-382
__	-383
ight	-384
▁by	-385
iew	-386
eg	-387
▁key	-388
▁function	-389
uild	-390
▁are	-391
stance	-392
Pro	-393
ive	-394
port	-395
rror	-396
ide	-397
ail	-398
tp	-399
ress	-400
▁final	-401
Type	-402
▁work	-403
ected	-404
▁throw	-405
▁list	-406
▁er	-407
▁se	-408
▁en	-409
set	-410
▁type	-411
▁assertEqual	-412
low	-413
▁The	-414
▁user	-415
ource	-416
essage	-417
▁stat	-418
▁using	-419
ule	-420
ange	-421
).	-422
▁V	-423
ies	-424
▁__	-425
eb	-426
▁li	-427
com	-428
ator	-429
▁val	-430
ition	-431
ml	-432
▁var	-433
ip	-434
▁som	-435
▁has	-436
ans	-437
fo	-438
yth	-439
▁exp	-440
ument	-441
ated	-442
ener	-443
▁len	-444
vice	-445
eed	-446
▁create	-447
Error	-448
ock	-449
Cont	-450
▁wr	-451
ong	-452
▁\	-453
ass	-454
▁object	-455
▁Y	-456
str	-457
▁col	-458
▁like	-459
ook	-460
val	-461
ponse	-462
▁ser	-463
pd	-464
String	-465
▁path	-466
lean	-467
▁!=	-468
ast	-469
read	-470
▁pre	-471
▁error	-472
ll	-473
form	-474
rint	-475
▁form	-476
▁will	-477
▁In	-478
▁method	-479
',	-480
To	-481
ault	-482
▁want	-483
der	-484
▁True	-485
▁fil	-486
roup	-487
▁param	-488
.0	-489
sh	-490
▁ht	-491
url	-492
Res	-493
lay	-494
ich	-495
ber	-496
ute	-497
uf	-498
ink	-499
▁log	-500
▁am	-501
▁ind	-502
Ch	-503
▁4	-504
▁when	-505
ix	-506
▁un	-507
▁start	-508
ython	-509
ound	-510
▁all	-511
▁num	-512
lient	-513
urre	-514
▁need	-515
ues	-516
▁run	-517
og	-518
pert	-519
▁str	-520
ug	-521
▁$	-522
ection	-523
pro	-524
▁read	-525
gth	-526
Value	-527
so	-528
("	-529
▁cl	-530
ary	-531
oolean	-532
▁request	-533
ove	-534
ON	-535
ER	-536
▁append	-537
",	-538
">	-539
ther	-540
to	-541
ement	-542
</	-543
ry	-544
▁call	-545
cal	-546
ample	-547
▁&	-548
▁check	-549
▁which	-550
ard	-551
ign	-552
▁context	-553
▁so	-554
▁text	-555
irst	-556
up	-557
ream	-558
ens	-559
file	-560
▁time	-561
urrent	-562
ting	-563
uct	-564
▁You	-565
trib	-566
▁line	-567
Ser	-568
ict	-569
('	-570
own	-571
ally	-572
▁sub	-573
js	-574
oint	-575
▁field	-576
▁5	-577
riv	-578
app	-579
ask	-580
ud	-581
▁ac	-582
ence	-583
Data	-584
ace	-585
▁true	-586
ey	-587
▁other	-588
▁?	-589
umn	-590
▁should	-591
▁array	-592
▁print	-593
ise	-594
ob	-595
▁throws	-596
ton	-597
▁any	-598
▁would	-599
res	-600
type	-601
yst	-602
tem	-603
ST	-604
Key	-605
ac	-606
▁False	-607
▁one	-608
--	-609
▁false	-610
pec	-611
▁ab	-612
▁me	-613
rray	-614
ystem	-615
▁item	-616
▁qu	-617
▁ra	-618
//	-619
lock	-620
▁string	-621
AT	-622
rivate	-623
ax	-624
▁boolean	-625
▁then	-626
▁How	-627
▁some	-628
▁Wh	-629
pdate	-630
uilder	-631
▁Con	-632
ph	-633
▁index	-634
load	-635
▁le	-636
▁input	-637
data	-638
par	-639
Com	-640
01	-641
te	-642
▁fol	-643
ersion	-644
▁static	-645
▁pass	-646
▁sc	-647
▁http	-648
ak	-649
▁how	-650
▁private	-651
▁there	-652
▁does	-653
Re	-654
Set	-655
▁element	-656
▁write	-657
▁import	-658
Qu	-659
File	-660
▁dis	-661
Int	-662
▁rem	-663
arent	-664
▁comm	-665
▁This	-666
▁way	-667
cept	-668
▁op	-669
ell	-670
path	-671
lick	-672
▁size	-673
▁|	-674
Class	-675
▁args	-676
▁url	-677
://	-678
▁rep	-679
By	-680
▁//	-681
irect	-682
lement	-683
▁end	-684
▁ent	-685
ache	-686
En	-687
ames	-688
ken	-689
▁find	-690
not	-691
▁inst	-692
div	-693
▁config	-694
▁output	-695
anag	-696
rame	-697
uth	-698
yn	-699
cl	-700
arch	-701
▁node	-702
▁</	-703
▁If	-704
▁event	-705
arget	-706
LE	-707
init	-708
blem	-709
▁Object	-710
text	-711
list	-712
▁doc	-713
▁comp	-714
oin	-715
▁what	-716
▁super	-717
▁case	-718
▁first	-719
use	-720
tern	-721
ages	-722
▁state	-723
ree	-724
ff	-725
▁response	-726
args	-727
▁only	-728
();	-729
enc	-730
andl	-731
▁instance	-732
View	-733
ession	-734
..	-735
▁java	-736
▁del	-737
Th	-738
perty	-739
▁load	-740
yp	-741
eader	-742
lication	-743
eight	-744
▁Test	-745
▁just	-746
sg	-747
▁values	-748
▁format	-749
▁#	-750
▁conn	-751
bo	-752
▁default	-753
▁ob	-754
▁current	-755
ev	-756
back	-757
▁ro	-758
▁os	-759
▁X	-760
Element	-761
mod	-762
RE	-763
▁hel	-764
▁problem	-765
ner	-766
IN	-767
ution	-768
▁Exception	-769
Par	-770
py	-771
State	-772
lace	-773
led	-774
▁cls	-775
▁follow	-776
▁length	-777
▁message	-778
▁List	-779
sp	-780
▁reg	-781
Field	-782
▁Int	-783
▁Java	-784
ifi	-785
Object	-786
iter	-787
ning	-788
▁ST	-789
.1	-790
▁arg	-791
ody	-792
▁make	-793
add	-794
▁look	-795
son	-796
▁em	-797
▁vari	-798
ponent	-799
▁module	-800
nder	-801
▁act	-802
▁exec	-803
oth	-804
▁no	-805
gr	-806
ete	-807
▁example	-808
tribute	-809
▁z	-810
uffer	-811
▁contain	-812
▁St	-813
▁put	-814
Col	-815
fter	-816
▁page	-817
anager	-818
ible	-819
erm	-820
ID	-821
▁model	-822
▁sim	-823
les	-824
ger	-825
ptions	-826
ge	-827
Map	-828
▁server	-829
At	-830
play	-831
Context	-832
▁10	-833
idth	-834
▁des	-835
Im	-836
▁raise	-837
indow	-838
▁assertEquals	-839
Time	-840
▁same	-841
▁content	-842
▁client	-843
ify	-844
Text	-845
ific	-846
ME	-847
sel	-848
▁part	-849
value	-850
Mod	-851
OR	-852
cre	-853
ual	-854
ause	-855
roll	-856
count	-857
quire	-858
word	-859
▁6	-860
▁np	-861
Test	-862
▁version	-863
▁equal	-864
loat	-865
Query	-866
ool	-867
▁It	-868
uration	-869
▁**	-870
sw	-871
▁sec	-872
ndex	-873
andler	-874
▁row	-875
▁was	-876
ouble	-877
▁help	-878
▁long	-879
▁File	-880
ML	-881
▁pl	-882
ft	-883
),	-884
▁max	-885
▁up	-886
▁dif	-887
rc	-888
lose	-889
ash	-890
eger	-891
▁prot	-892
actory	-893
osition	-894
abel	-895
Config	-896
Node	-897
▁expected	-898
▁here	-899
▁match	-900
work	-901
ank	-902
":	-903
▁rec	-904
now	-905
▁into	-906
▁go	-907
base	-908
class	-909
iss	-910
▁update	-911
log	-912
▁8	-913
ations	-914
▁next	-915
▁Pro	-916
▁catch	-917
▁dec	-918
▁sol	-919
Path	-920
ref	-921
▁&&	-922
▁while	-923
▁trans	-924
ick	-925
▁char	-926
ccess	-927
▁group	-928
vert	-929
ake	-930
plit	-931
Service	-932
til	-933
gle	-934
▁+=	-935
▁ext	-936
itle	-937
▁spec	-938
▁init	-939
ape	-940
▁count	-941
▁Ch	-942
▁Ex	-943
code	-944
Stream	-945
Event	-946
▁sp	-947
ie	-948
test	-949
ond	-950
▁kw	-951
▁inter	-952
Message	-953
▁So	-954
gh	-955
io	-956
ces	-957
▁trying	-958
Request	-959
▁don	-960
▁STR	-961
pty	-962
▁column	-963
tes	-964
▁ad	-965
▁tem	-966
▁image	-967
ates	-968
▁could	-969
▁gener	-970
▁parent	-971
▁project	-972
▁tw	-973
ething	-974
ature	-975
▁ins	-976
oop	-977
plate	-978
ypes	-979
▁cal	-980
ider	-981
utton	-982
▁following	-983
):	-984
Builder	-985
Of	-986
▁obj	-987
▁show	-988
AR	-989
▁back	-990
ector	-991
min	-992
▁sy	-993
col	-994
lection	-995
▁q	-996
▁build	-997
▁target	-998
▁query	-999
▁except	-1000
ever	-1001
▁msg	-1002
ename	-1003
▁An	-1004
▁open	-1005
▁more	-1006
ope	-1007
▁know	-1008
dir	-1009
Item	-1010
▁tag	-1011
roid	-1012
Manager	-1013
▁Not	-1014
▁number	-1015
eter	-1016
plement	-1017
▁each	-1018
ous	-1019
▁last	-1020
reak	-1021
▁source	-1022
efore	-1023
efault	-1024
AL	-1025
NEWLINE	-1026
▁also	-1027
Index	-1028
▁STRNEWLINE	-1029
▁process	-1030
opy	-1031
▁table	-1032
Util	-1033
Not	-1034
lib	-1035
ions	-1036
▁document	-1037
▁ap	-1038
clud	-1039
▁web	-1040
▁0.	-1041
eta	-1042
Info	-1043
ia	-1044
ines	-1045
▁remove	-1046
line	-1047
atus	-1048
▁JS	-1049
Size	-1050
cont	-1051
▁System	-1052
000	-1053
▁const	-1054
▁per	-1055
▁local	-1056
IT	-1057
▁differ	-1058
Count	-1059
Array	-1060
▁map	-1061
ark	-1062
▁where	-1063
▁see	-1064
verr	-1065
12	-1066
▁My	-1067
pport	-1068
▁bec	-1069
red	-1070
ized	-1071
32	-1072
of	-1073
▁min	-1074
da	-1075
ating	-1076
▁after	-1077
▁Array	-1078
▁view	-1079
tings	-1080
SS	-1081
fil	-1082
▁send	-1083
▁change	-1084
string	-1085
ebug	-1086
▁elif	-1087
True	-1088
instance	-1089
try	-1090
Code	-1091
▁python	-1092
▁something	-1093
avas	-1094
▁filter	-1095
▁equals	-1096
ish	-1097
ative	-1098
avascript	-1099
▁tri	-1100
valid	-1101
▁require	-1102
andom	-1103
▁info	-1104
user	-1105
lob	-1106
▁script	-1107
▁join	-1108
raph	-1109
orre	-1110
▁objects	-1111
▁++	-1112
▁break	-1113
ices	-1114
nel	-1115
ength	-1116
Instance	-1117
▁float	-1118
▁Python	-1119
▁we	-1120
ustom	-1121
▁child	-1122
▁Com	-1123
ulti	-1124
Param	-1125
▁command	-1126
▁kwargs	-1127
ION	-1128
vers	-1129
10	-1130
chem	-1131
ov	-1132
util	-1133
▁status	-1134
▁files	-1135
struct	-1136
▁iter	-1137
▁parse	-1138
method	-1139
▁action	-1140
▁mock	-1141
Out	-1142
its	-1143
▁And	-1144
▁two	-1145
...	-1146
umber	-1147
CT	-1148
▁button	-1149
yle	-1150
ql	-1151
')	-1152
ps	-1153
▁them	-1154
▁protected	-1155
▁But	-1156
▁dep	-1157
Result	-1158
vir	-1159
▁Here	-1160
sc	-1161
perties	-1162
User	-1163
oogle	-1164
Factory	-1165
java	-1166
▁params	-1167
▁chang	-1168
Un	-1169
▁7	-1170
▁application	-1171
▁direct	-1172
gram	-1173
Ar	-1174
andle	-1175
▁loop	-1176
On	-1177
Null	-1178
verride	-1179
pr	-1180
ression	-1181
▁click	-1182
Form	-1183
idd	-1184
▁valid	-1185
▁json	-1186
")	-1187
attr	-1188
▁order	-1189
▁variable	-1190
point	-1191
info	-1192
▁link	-1193
▁IO	-1194
▁Un	-1195
let	-1196
▁pack	-1197
▁K	-1198
▁byte	-1199
cription	-1200
cod	-1201
Val	-1202
ular	-1203
▁second	-1204
▁tra	-1205
▁lib	-1206
']	-1207
▁src	-1208
md	-1209
▁because	-1210
SE	-1211
input	-1212
ables	-1213
▁date	-1214
▁getS	-1215
▁display	-1216
raw	-1217
itor	-1218
▁HT	-1219
map	-1220
▁root	-1221
▁close	-1222
▁exist	-1223
orrect	-1224
Listener	-1225
gg	-1226
Add	-1227
▁post	-1228
unc	-1229
▁ns	-1230
▁off	-1231
▁bas	-1232
▁host	-1233
RL	-1234
ont	-1235
rans	-1236
▁foo	-1237
item	-1238
▁db	-1239
ays	-1240
▁de	-1241
query	-1242
be	-1243
CE	-1244
ome	-1245
ateg	-1246
html	-1247
dict	-1248
▁bel	-1249
▁quest	-1250
script	-1251
▁search	-1252
▁used	-1253
ayout	-1254
▁bet	-1255
");	-1256
▁found	-1257
lease	-1258
ely	-1259
▁org	-1260
▁split	-1261
by	-1262
▁working	-1263
ox	-1264
▁..	-1265
----	-1266
▁loc	-1267
▁fail	-1268
▁dict	-1269
All	-1270
▁works	-1271
▁For	-1272
▁man	-1273
ivity	-1274
size	-1275
vel	-1276
▁Is	-1277
▁block	-1278
lag	-1279
urs	-1280
http	-1281
RO	-1282
▁tried	-1283
ueue	-1284
▁session	-1285
action	-1286
▁implement	-1287
ait	-1288
ocket	-1289
▁task	-1290
oss	-1291
▁double	-1292
▁iss	-1293
1,	-1294
64	-1295
▁assertTrue	-1296
▁Col	-1297
▁access	-1298
ugin	-1299
sole	-1300
For	-1301
▁toString	-1302
▁tim	-1303
With	-1304
ose	-1305
▁thread	-1306
▁different	-1307
▁ed	-1308
▁ever	-1309
▁base	-1310
▁main	-1311
Fil	-1312
mp	-1313
▁Type	-1314
▁exception	-1315
unt	-1316
ined	-1317
odes	-1318
omain	-1319
nection	-1320
mit	-1321
stra	-1322
▁Integer	-1323
pper	-1324
▁port	-1325
PI	-1326
rec	-1327
annel	-1328
▁doesn	-1329
Sh	-1330
▁dat	-1331
▁9	-1332
other	-1333
utes	-1334
enu	-1335
▁over	-1336
Response	-1337
ote	-1338
time	-1339
Model	-1340
▁cr	-1341
face	-1342
UT	-1343
PE	-1344
du	-1345
▁point	-1346
▁token	-1347
App	-1348
eature	-1349
ics	-1350
▁auth	-1351
lear	-1352
2.	-1353
▁ref	-1354
reg	-1355
Loc	-1356
rol	-1357
▁100	-1358
▁IOException	-1359
ync	-1360
abled	-1361
▁right	-1362
eaders	-1363
AN	-1364
▁range	-1365
▁now	-1366
attern	-1367
▁connection	-1368
tx	-1369
▁html	-1370
▁mem	-1371
':	-1372
index	-1373
Or	-1374
mand	-1375
▁options	-1376
ister	-1377
▁about	-1378
ln	-1379
▁});	-1380
▁convert	-1381
▁answ	-1382
▁label	-1383
▁Res	-1384
▁||	-1385
ari	-1386
Property	-1387
px	-1388
round	-1389
▁Im	-1390
▁getP	-1391
Handler	-1392
▁solution	-1393
▁isinstance	-1394
▁sort	-1395
box	-1396
my	-1397
▁Q	-1398
over	-1399
iled	-1400
Des	-1401
sum	-1402
for	-1403
▁oper	-1404
self	-1405
net	-1406
Ref	-1407
ments	-1408
▁before	-1409
eters	-1410
▁debug	-1411
ension	-1412
ear	-1413
evel	-1414
▁Re	-1415
▁may	-1416
ocument	-1417
▁store	-1418
▁question	-1419
▁What	-1420
▁Value	-1421
▁prov	-1422
ical	-1423
ee	-1424
Inter	-1425
▁Set	-1426
Date	-1427
▁instead	-1428
▁than	-1429
Input	-1430
20	-1431
▁Ser	-1432
ializ	-1433
▁Get	-1434
▁contains	-1435
▁entry	-1436
▁rel	-1437
▁names	-1438
▁width	-1439
▁position	-1440
▁...	-1441
Group	-1442
▁refer	-1443
field	-1444
▁When	-1445
▁old	-1446
ors	-1447
duct	-1448
oad	-1449
ourse	-1450
▁program	-1451
▁To	-1452
▁replace	-1453
Method	-1454
1.	-1455
imit	-1456
rite	-1457
▁select	-1458
▁conf	-1459
▁extr	-1460
▁hash	-1461
▁Map	-1462
▁av	-1463
oot	-1464
▁below	-1465
An	-1466
roller	-1467
▁Data	-1468
function	-1469
ade	-1470
rary	-1471
Content	-1472
▁its	-1473
ient	-1474
▁stream	-1475
view	-1476
ttp	-1477
▁top	-1478
▁Thank	-1479
▁copy	-1480
▁service	-1481
▁net	-1482
▁results	-1483
new	-1484
group	-1485
ically	-1486
▁gr	-1487
older	-1488
▁argument	-1489
▁window	-1490
rowser	-1491
▁execute	-1492
▁12	-1493
▁body	-1494
loc	-1495
▁pr	-1496
And	-1497
etail	-1498
▁items	-1499
▁console	-1500
ually	-1501
arg	-1502
af	-1503
Act	-1504
From	-1505
▁under	-1506
Action	-1507
ater	-1508
▁correct	-1509
▁seem	-1510
().	-1511
ified	-1512
check	-1513
▁py	-1514
viron	-1515
0,	-1516
sub	-1517
Exp	-1518
▁https	-1519
▁poss	-1520
▁another	-1521
td	-1522
rag	-1523
structor	-1524
fix	-1525
▁extend	-1526
▁orig	-1527
Table	-1528
AME	-1529
▁they	-1530
ings	-1531
Log	-1532
▁delete	-1533
RI	-1534
arning	-1535
lobal	-1536
▁sw	-1537
▁filename	-1538
ready	-1539
clude	-1540
Client	-1541
state	-1542
▁ev	-1543
▁vis	-1544
Sel	-1545
ground	-1546
▁save	-1547
und	-1548
▁xml	-1549
ese	-1550
▁component	-1551
▁think	-1552
Script	-1553
ush	-1554
0000	-1555
▁option	-1556
▁Al	-1557
▁random	-1558
OM	-1559
▁En	-1560
ince	-1561
Status	-1562
],	-1563
▁title	-1564
sing	-1565
lab	-1566
ET	-1567
▁answer	-1568
pace	-1569
▁ver	-1570
igh	-1571
▁On	-1572
dition	-1573
order	-1574
AG	-1575
))	-1576
Buffer	-1577
▁getD	-1578
▁Class	-1579
11	-1580
QL	-1581
▁div	-1582
▁down	-1583
Rep	-1584
db	-1585
▁giv	-1586
chema	-1587
▁lang	-1588
▁multi	-1589
ifier	-1590
untime	-1591
we	-1592
this	-1593
Em	-1594
config	-1595
ron	-1596
==	-1597
gn	-1598
tributes	-1599
▁aut	-1600
rough	-1601
cc	-1602
▁At	-1603
ules	-1604
▁attr	-1605
▁Can	-1606
▁pop	-1607
▁simple	-1608
▁property	-1609
▁Ass	-1610
river	-1611
df	-1612
ower	-1613
Output	-1614
▁sure	-1615
['	-1616
▁render	-1617
etad	-1618
UL	-1619
vo	-1620
▁fields	-1621
uster	-1622
AB	-1623
▁without	-1624
▁fix	-1625
module	-1626
3.	-1627
End	-1628
▁must	-1629
▁ag	-1630
amp	-1631
▁height	-1632
▁allow	-1633
ises	-1634
ars	-1635
etadata	-1636
json	-1637
▁--	-1638
▁inside	-1639
jax	-1640
▁1.	-1641
Trans	-1642
▁issue	-1643
ternal	-1644
ATE	-1645
▁template	-1646
▁By	-1647
equal	-1648
ailed	-1649
pack	-1650
▁ArrayList	-1651
▁handle	-1652
ume	-1653
Reg	-1654
▁elements	-1655
ren	-1656
▁sys	-1657
param	-1658
ility	-1659
▁called	-1660
xy	-1661
▁As	-1662
ious	-1663
bers	-1664
version	-1665
old	-1666
▁android	-1667
ources	-1668
='	-1669
▁df	-1670
1"	-1671
▁clear	-1672
▁word	-1673
▁possible	-1674
si	-1675
ingle	-1676
with	-1677
▁database	-1678
').	-1679
▁User	-1680
ean	-1681
itch	-1682
▁pos	-1683
▁initial	-1684
▁dir	-1685
-0	-1686
FI	-1687
ainer	-1688
OL	-1689
▁created	-1690
print	-1691
ason	-1692
wh	-1693
▁dist	-1694
▁through	-1695
▁getC	-1696
array	-1697
uck	-1698
▁frame	-1699
Al	-1700
▁sign	-1701
button	-1702
anel	-1703
start	-1704
▁able	-1705
ful	-1706
ification	-1707
▁instanceof	-1708
▁JSON	-1709
ialog	-1710
Su	-1711
orage	-1712
ched	-1713
Utils	-1714
sed	-1715
Sc	-1716
from	-1717
su	-1718
▁support	-1719
air	-1720
reate	-1721
Load	-1722
Child	-1723
ty	-1724
ING	-1725
ything	-1726
Address	-1727
34	-1728
▁getName	-1729
iddle	-1730
▁javascript	-1731
▁logger	-1732
length	-1733
25	-1734
▁custom	-1735
▁been	-1736
uid	-1737
riter	-1738
▁empty	-1739
▁cache	-1740
TE	-1741
▁Override	-1742
▁resource	-1743
mb	-1744
etime	-1745
Line	-1746
▁address	-1747
▁color	-1748
▁depend	-1749
▁HTML	-1750
label	-1751
pos	-1752
ough	-1753
▁browser	-1754
apt	-1755
ocol	-1756
▁why	-1757
▁these	-1758
▁password	-1759
▁getting	-1760
obj	-1761
Format	-1762
Attribute	-1763
resh	-1764
▁builder	-1765
▁cmd	-1766
▁left	-1767
▁play	-1768
lect	-1769
Source	-1770
error	-1771
OG	-1772
▁doing	-1773
▁every	-1774
▁encod	-1775
▁API	-1776
▁did	-1777
amb	-1778
▁lines	-1779
▁offset	-1780
host	-1781
olic	-1782
parse	-1783
Up	-1784
frame	-1785
tual	-1786
Token	-1787
ffset	-1788
▁App	-1789
▁Cont	-1790
▁RE	-1791
ets	-1792
formation	-1793
▁dest	-1794
99	-1795
pre	-1796
▁record	-1797
exp	-1798
create	-1799
idget	-1800
▁header	-1801
cel	-1802
▁Thanks	-1803
utor	-1804
change	-1805
▁ph	-1806
▁contin	-1807
cs	-1808
Column	-1809
▁bit	-1810
ntity	-1811
ween	-1812
▁above	-1813
▁tot	-1814
2,	-1815
▁bar	-1816
▁However	-1817
rl	-1818
vious	-1819
Arg	-1820
▁ValueError	-1821
▁running	-1822
result	-1823
▁""	-1824
▁job	-1825
jang	-1826
erson	-1827
ants	-1828
vider	-1829
que	-1830
itt	-1831
▁attribute	-1832
allback	-1833
▁api	-1834
▁keys	-1835
Component	-1836
▁buffer	-1837
▁register	-1838
dis	-1839
▁ax	-1840
▁already	-1841
xml	-1842
Entry	-1843
iction	-1844
▁settings	-1845
CH	-1846
Start	-1847
uple	-1848
▁course	-1849
UE	-1850
That	-1851
model	-1852
ursor	-1853
▁charact	-1854
Is	-1855
"></	-1856
▁location	-1857
org	-1858
▁install	-1859
▁Sh	-1860
Tra	-1861
etch	-1862
Filter	-1863
▁Error	-1864
api	-1865
ency	-1866
jango	-1867
Impl	-1868
request	-1869
Row	-1870
');	-1871
flow	-1872
Ra	-1873
Rec	-1874
▁Log	-1875
▁0.0	-1876
▁20	-1877
Frame	-1878
eff	-1879
▁wrong	-1880
▁uid	-1881
▁package	-1882
▁getM	-1883
_1	-1884
▁ow	-1885
Image	-1886
leg	-1887
ensor	-1888
▁errors	-1889
50	-1890
serv	-1891
▁Node	-1892
Task	-1893
rop	-1894
utable	-1895
etr	-1896
▁insert	-1897
▁201	-1898
▁Mod	-1899
aving	-1900
201	-1901
ambda	-1902
▁parameter	-1903
▁sep	-1904
▁headers	-1905
▁parser	-1906
click	-1907
▁level	-1908
Oper	-1909
stand	-1910
Version	-1911
▁Any	-1912
▁still	-1913
loy	-1914
Hel	-1915
ern	-1916
rix	-1917
gine	-1918
▁buf	-1919
Se	-1920
essages	-1921
enter	-1922
Resource	-1923
Connection	-1924
ms	-1925
[0	-1926
▁let	-1927
▁>=	-1928
imal	-1929
Tag	-1930
object	-1931
-1	-1932
Layout	-1933
▁sk	-1934
Button	-1935
ging	-1936
▁stop	-1937
▁sum	-1938
OT	-1939
site	-1940
▁shape	-1941
Str	-1942
ared	-1943
▁Key	-1944
▁both	-1945
▁even	-1946
▁assertThat	-1947
keep	-1948
Number	-1949
▁domain	-1950
Check	-1951
▁Date	-1952
▁got	-1953
As	-1954
ision	-1955
▁std	-1956
▁very	-1957
▁dtype	-1958
Configuration	-1959
▁success	-1960
body	-1961
Ed	-1962
▁total	-1963
pen	-1964
urity	-1965
date	-1966
option	-1967
▁opt	-1968
▁cannot	-1969
rap	-1970
ategory	-1971
ynch	-1972
▁style	-1973
Get	-1974
lip	-1975
▁multiple	-1976
▁system	-1977
24	-1978
▁Assert	-1979
YPE	-1980
▁mode	-1981
▁ide	-1982
▁required	-1983
▁err	-1984
inary	-1985
▁methods	-1986
unk	-1987
Empty	-1988
TP	-1989
link	-1990
NAME	-1991
nown	-1992
issing	-1993
▁done	-1994
atrix	-1995
content	-1996
▁Add	-1997
olicy	-1998
ormal	-1999
Thread	-2000
▁There	-2001
").	-2002
▁URL	-2003
ynchron	-2004
▁step	-2005
▁callback	-2006
cale	-2007
table	-2008
▁->	-2009
▁co	-2010
Bytes	-2011
▁rout	-2012
▁bytes	-2013
AX	-2014
ieve	-2015
▁between	-2016
AD	-2017
Server	-2018
Sub	-2019
ities	-2020
ouse	-2021
▁email	-2022
▁Par	-2023
▁prefix	-2024
gnore	-2025
▁req	-2026
▁being	-2027
process	-2028
▁mark	-2029
ced	-2030
▁gu	-2031
▁sm	-2032
▁resol	-2033
▁environ	-2034
▁returns	-2035
any	-2036
▁wait	-2037
▁library	-2038
legal	-2039
▁Or	-2040
▁cur	-2041
▁compl	-2042
inition	-2043
▁struct	-2044
▁continue	-2045
▁temp	-2046
▁util	-2047
Block	-2048
reen	-2049
▁},	-2050
etails	-2051
▁eas	-2052
ring	-2053
▁changed	-2054
▁fine	-2055
her	-2056
ideo	-2057
▁No	-2058
▁jQuery	-2059
80	-2060
llegal	-2061
quence	-2062
Del	-2063
){	-2064
▁flag	-2065
▁might	-2066
rid	-2067
ways	-2068
▁original	-2069
▁reason	-2070
imple	-2071
server	-2072
ples	-2073
Dir	-2074
▁et	-2075
▁env	-2076
].	-2077
▁200	-2078
▁google	-2079
criptor	-2080
Case	-2081
arn	-2082
OST	-2083
16	-2084
▁such	-2085
▁plugin	-2086
bar	-2087
▁seems	-2088
cat	-2089
56	-2090
▁global	-2091
Dis	-2092
30	-2093
Def	-2094
▁mak	-2095
Dec	-2096
▁red	-2097
▁func	-2098
undle	-2099
Argument	-2100
▁Http	-2101
▁description	-2102
ById	-2103
Url	-2104
LO	-2105
▁keep	-2106
▁full	-2107
ested	-2108
▁Then	-2109
▁ctx	-2110
▁eval	-2111
▁single	-2112
Provider	-2113
▁feature	-2114
inter	-2115
run	-2116
edia	-2117
▁sugg	-2118
default	-2119
Ret	-2120
comp	-2121
uage	-2122
▁properties	-2123
▁really	-2124
Activity	-2125
▁tab	-2126
ret	-2127
osit	-2128
▁"""	-2129
▁sb	-2130
python	-2131
lat	-2132
node	-2133
▁happ	-2134
▁directory	-2135
sl	-2136
▁term	-2137
ential	-2138
▁upd	-2139
FA	-2140
rapper	-2141
ole	-2142
▁tx	-2143
ases	-2144
ns	-2145
ND	-2146
▁common	-2147
Names	-2148
ED	-2149
ynam	-2150
Color	-2151
ailable	-2152
▁understand	-2153
▁Hash	-2154
no	-2155
Process	-2156
▁classes	-2157
cul	-2158
▁LOG	-2159
▁actual	-2160
▁bind	-2161
▁reference	-2162
uri	-2163
ng	-2164
CK	-2165
page	-2166
▁JavaScript	-2167
▁username	-2168
format	-2169
lable	-2170
▁aw	-2171
False	-2172
▁variables	-2173
▁non	-2174
▁ID	-2175
resent	-2176
▁pattern	-2177
assword	-2178
▁mu	-2179
▁parameters	-2180
▁real	-2181
pped	-2182
▁assign	-2183
▁sn	-2184
▁exists	-2185
ission	-2186
▁specific	-2187
▁<=	-2188
▁Collection	-2189
▁sl	-2190
▁1.0	-2191
▁Now	-2192
rep	-2193
▁rece	-2194
▁View	-2195
▁since	-2196
▁well	-2197
▁println	-2198
Exec	-2199
Raises	-2200
▁draw	-2201
ys	-2202
estamp	-2203
▁account	-2204
▁network	-2205
ences	-2206
▁=>	-2207
▁Psi	-2208
▁getB	-2209
types	-2210
pping	-2211
▁device	-2212
▁handler	-2213
event	-2214
AP	-2215
▁datetime	-2216
Cache	-2217
▁tool	-2218
olume	-2219
inish	-2220
del	-2221
vlet	-2222
▁2.	-2223
Mapp	-2224
ward	-2225
gress	-2226
3,	-2227
▁generate	-2228
▁assertRaises	-2229
shot	-2230
▁Text	-2231
▁switch	-2232
▁mon	-2233
▁timeout	-2234
▁Illegal	-2235
▁finally	-2236
entic	-2237
mt	-2238
ender	-2239
Auth	-2240
**	-2241
orld	-2242
▁always	-2243
span	-2244
Length	-2245
Reader	-2246
filter	-2247
[]	-2248
▁added	-2249
doc	-2250
az	-2251
Header	-2252
▁place	-2253
▁Z	-2254
▁rest	-2255
ins	-2256
num	-2257
▁abs	-2258
▁lambda	-2259
notation	-2260
▁ip	-2261
▁better	-2262
ULT	-2263
▁stack	-2264
Label	-2265
response	-2266
erence	-2267
▁perform	-2268
JS	-2269
▁Do	-2270
Tem	-2271
ique	-2272
▁again	-2273
CO	-2274
▁16	-2275
55	-2276
▁cert	-2277
spec	-2278
▁href	-2279
Entity	-2280
client	-2281
URL	-2282
▁container	-2283
▁looks	-2284
auth	-2285
Page	-2286
esc	-2287
context	-2288
message	-2289
ragment	-2290
MP	-2291
cle	-2292
▁based	-2293
1'	-2294
Next	-2295
▁connect	-2296
▁Out	-2297
▁sql	-2298
ither	-2299
evice	-2300
▁extends	-2301
2"	-2302
▁background	-2303
Run	-2304
▁selected	-2305
▁comput	-2306
rem	-2307
ository	-2308
14	-2309
verse	-2310
down	-2311
actor	-2312
▁many	-2313
▁good	-2314
trans	-2315
▁product	-2316
ializer	-2317
names	-2318
atic	-2319
vas	-2320
▁/>	-2321
--------	-2322
FF	-2323
▁0,	-2324
▁include	-2325
▁best	-2326
▁yield	-2327
Stack	-2328
Session	-2329
++	-2330
write	-2331
▁columns	-2332
tach	-2333
uture	-2334
Local	-2335
▁too	-2336
ariable	-2337
Access	-2338
ww	-2339
HT	-2340
Click	-2341
image	-2342
match	-2343
▁configuration	-2344
▁raw	-2345
mon	-2346
ization	-2347
";	-2348
▁entity	-2349
▁expect	-2350
evelop	-2351
▁$('	-2352
ids	-2353
aw	-2354
▁encoding	-2355
ane	-2356
output	-2357
:00	-2358
Base	-2359
SER	-2360
ds	-2361
▁det	-2362
▁compare	-2363
mbol	-2364
▁separ	-2365
SI	-2366
▁statement	-2367
▁condition	-2368
ru	-2369
epend	-2370
irectory	-2371
ops	-2372
▁had	-2373
ats	-2374
Types	-2375
tempt	-2376
ialize	-2377
▁within	-2378
ily	-2379
find	-2380
▁Web	-2381
sv	-2382
15	-2383
▁ident	-2384
▁channel	-2385
Char	-2386
terator	-2387
".	-2388
aces	-2389
▁rows	-2390
Offset	-2391
Values	-2392
▁take	-2393
▁js	-2394
www	-2395
▁graph	-2396
aven	-2397
▁functions	-2398
Mode	-2399
▁suggest	-2400
Enabled	-2401
ointer	-2402
▁SQL	-2403
ably	-2404
conn	-2405
▁getValue	-2406
max	-2407
Expression	-2408
▁comment	-2409
ero	-2410
width	-2411
▁extra	-2412
patch	-2413
▁SE	-2414
▁prob	-2415
▁1,	-2416
ta	-2417
anged	-2418
▁invo	-2419
igger	-2420
Tree	-2421
Store	-2422
values	-2423
▁folder	-2424
▁apply	-2425
▁move	-2426
▁tmp	-2427
Width	-2428
▁short	-2429
amed	-2430
Ob	-2431
local	-2432
ilar	-2433
prot	-2434
▁Loc	-2435
refix	-2436
▁>>	-2437
▁information	-2438
▁having	-2439
br	-2440
▁Byte	-2441
tn	-2442
stract	-2443
▁clean	-2444
▁much	-2445
Bean	-2446
▁Long	-2447
EY	-2448
Point	-2449
▁side	-2450
istry	-2451
▁setup	-2452
icode	-2453
▁socket	-2454
ather	-2455
Valid	-2456
ott	-2457
▁resp	-2458
Function	-2459
▁dum	-2460
Parameter	-2461
Command	-2462
amples	-2463
uff	-2464
Box	-2465
▁tree	-2466
])	-2467
Parser	-2468
▁say	-2469
Vis	-2470
idden	-2471
▁edit	-2472
▁clo	-2473
Part	-2474
ination	-2475
▁Config	-2476
▁Thread	-2477
▁won	-2478
Pack	-2479
lish	-2480
Helper	-2481
▁those	-2482
▁pk	-2483
▁sample	-2484
Comp	-2485
dapt	-2486
current	-2487
▁appro	-2488
▁thing	-2489
ether	-2490
▁^	-2491
><	-2492
▁limit	-2493
ayer	-2494
▁Also	-2495
ration	-2496
▁pool	-2497
▁adv	-2498
title	-2499
ier	-2500
▁TypeError	-2501
▁unit	-2502
files	-2503
▁fig	-2504
const	-2505
known	-2506
▁given	-2507
></	-2508
▁$(	-2509
open	-2510
Default	-2511
top	-2512
Options	-2513
sql	-2514
▁available	-2515
▁etc	-2516
VE	-2517
▁Path	-2518
5,	-2519
swith	-2520
▁validate	-2521
▁nodes	-2522
Project	-2523
▁synchron	-2524
Writer	-2525
19	-2526
▁interface	-2527
UI	-2528
sent	-2529
▁box	-2530
https	-2531
▁types	-2532
▁admin	-2533
▁memory	-2534
block	-2535
▁scope	-2536
▁mean	-2537
▁cell	-2538
DI	-2539
▁eff	-2540
({	-2541
▁download	-2542
scope	-2543
▁tak	-2544
eet	-2545
▁`	-2546
18	-2547
22	-2548
▁0;	-2549
Loader	-2550
ajax	-2551
bed	-2552
▁That	-2553
▁actually	-2554
▁HTTP	-2555
▁XML	-2556
pi	-2557
iated	-2558
ived	-2559
▁collection	-2560
search	-2561
▁cursor	-2562
▁Ed	-2563
System	-2564
Read	-2565
▁Attribute	-2566
main	-2567
call	-2568
▁failed	-2569
▁times	-2570
0.	-2571
▁site	-2572
▁own	-2573
tag	-2574
Down	-2575
Panel	-2576
▁missing	-2577
▁login	-2578
▁Run	-2579
_2	-2580
▁changes	-2581
▁give	-2582
most	-2583
33	-2584
true	-2585
pc	-2586
▁cluster	-2587
ances	-2588
▁bl	-2589
rypt	-2590
eted	-2591
ntax	-2592
ired	-2593
efined	-2594
ved	-2595
apshot	-2596
▁Mock	-2597
side	-2598
cy	-2599
▁previous	-2600
Window	-2601
ictionary	-2602
▁lower	-2603
▁verify	-2604
▁cons	-2605
Create	-2606
lang	-2607
▁ids	-2608
afe	-2609
▁their	-2610
dapter	-2611
ounds	-2612
web	-2613
Per	-2614
▁acc	-2615
eline	-2616
▁control	-2617
Order	-2618
rome	-2619
▁section	-2620
Const	-2621
▁models	-2622
element	-2623
sure	-2624
▁accept	-2625
EN	-2626
▁lat	-2627
AS	-2628
Meta	-2629
Mem	-2630
select	-2631
DB	-2632
len	-2633
▁most	-2634
do	-2635
jquery	-2636
▁assertFalse	-2637
▁users	-2638
▁screen	-2639
ites	-2640
▁high	-2641
▁Please	-2642
▁und	-2643
gular	-2644
Spec	-2645
▁ut	-2646
ware	-2647
Application	-2648
▁axis	-2649
erge	-2650
color	-2651
Container	-2652
parent	-2653
ply	-2654
▁Exp	-2655
▁expression	-2656
No	-2657
▁looking	-2658
▁via	-2659
status	-2660
IO	-2661
println	-2662
Pl	-2663
Module	-2664
Num	-2665
Return	-2666
▁encode	-2667
▁listener	-2668
iting	-2669
▁beh	-2670
Init	-2671
Target	-2672
ged	-2673
refer	-2674
▁perm	-2675
40	-2676
▁iterator	-2677
ense	-2678
update	-2679
Position	-2680
icle	-2681
column	-2682
oun	-2683
append	-2684
Change	-2685
alled	-2686
andard	-2687
▁idea	-2688
▁images	-2689
aster	-2690
▁NotNull	-2691
ookie	-2692
▁warning	-2693
▁15	-2694
▁attributes	-2695
ibility	-2696
izer	-2697
▁kind	-2698
ux	-2699
▁setUp	-2700
TH	-2701
▁fetch	-2702
▁exc	-2703
▁similar	-2704
pu	-2705
▁Math	-2706
Ass	-2707
ling	-2708
▁getR	-2709
78	-2710
ucket	-2711
(),	-2712
▁exact	-2713
ggreg	-2714
Queue	-2715
());	-2716
lain	-2717
ias	-2718
▁report	-2719
())	-2720
▁Request	-2721
▁dev	-2722
▁11	-2723
▁menu	-2724
MB	-2725
▁tf	-2726
Operation	-2727
▁defined	-2728
▁calcul	-2729
▁either	-2730
used	-2731
▁ignore	-2732
Sec	-2733
UR	-2734
36	-2735
▁queue	-2736
Reference	-2737
▁once	-2738
irtual	-2739
sk	-2740
eo	-2741
▁gre	-2742
▁Javascript	-2743
Height	-2744
▁numbers	-2745
▁controller	-2746
▁uri	-2747
udio	-2748
ik	-2749
▁getF	-2750
▁normal	-2751
dec	-2752
▁alert	-2753
\\	-2754
▁3.	-2755
▁font	-2756
▁scroll	-2757
lines	-2758
▁video	-2759
ayload	-2760
cer	-2761
iler	-2762
cache	-2763
▁export	-2764
▁idx	-2765
less	-2766
Hash	-2767
Document	-2768
▁rule	-2769
1)	-2770
▁visit	-2771
Location	-2772
var	-2773
part	-2774
},	-2775
aset	-2776
▁provid	-2777
▁Input	-2778
params	-2779
▁Try	-2780
2'	-2781
▁tags	-2782
ending	-2783
shape	-2784
post	-2785
▁arguments	-2786
Gener	-2787
Link	-2788
ifact	-2789
Level	-2790
aved	-2791
▁Time	-2792
▁reset	-2793
gin	-2794
FAULT	-2795
Adapter	-2796
▁br	-2797
▁constructor	-2798
▁approach	-2799
IL	-2800
ured	-2801
Unit	-2802
Properties	-2803
Record	-2804
▁layout	-2805
▁creating	-2806
aint	-2807
can	-2808
Long	-2809
▁please	-2810
▁he	-2811
otal	-2812
▁Message	-2813
Update	-2814
▁>>>	-2815
▁exit	-2816
support	-2817
▁getId	-2818
▁Runtime	-2819
▁proto	-2820
root	-2821
▁Builder	-2822
▁Py	-2823
▁ca	-2824
ottom	-2825
ATION	-2826
lipse	-2827
EX	-2828
▁isn	-2829
▁extract	-2830
adding	-2831
▁['	-2832
rib	-2833
img	-2834
▁getInstance	-2835
avi	-2836
imum	-2837
edi	-2838
cho	-2839
","	-2840
▁lock	-2841
▁invalid	-2842
▁dynam	-2843
▁going	-2844
▁Your	-2845
unch	-2846
iod	-2847
next	-2848
token	-2849
▁batch	-2850
▁mult	-2851
▁Reg	-2852
head	-2853
endar	-2854
RA	-2855
▁lot	-2856
▁compile	-2857
▁Ar	-2858
▁submit	-2859
build	-2860
▁Use	-2861
LA	-2862
▁Note	-2863
▁getClass	-2864
command	-2865
▁mat	-2866
Prot	-2867
▁upload	-2868
▁art	-2869
▁Code	-2870
▁Image	-2871
▁anyone	-2872
▁things	-2873
ries	-2874
lice	-2875
▁pol	-2876
PA	-2877
Match	-2878
▁active	-2879
location	-2880
▁anything	-2881
▁Inter	-2882
▁isEmpty	-2883
env	-2884
▁metadata	-2885
▁appe	-2886
pring	-2887
▁simply	-2888
▁uses	-2889
▁means	-2890
▁namespace	-2891
VER	-2892
▁hashCode	-2893
getElement	-2894
child	-2895
▁fill	-2896
Byte	-2897
▁pip	-2898
Found	-2899
▁enter	-2900
▁Why	-2901
▁includ	-2902
▁schema	-2903
ABLE	-2904
27	-2905
Rem	-2906
Http	-2907
▁strip	-2908
Integer	-2909
exec	-2910
▁events	-2911
▁enum	-2912
Fields	-2913
bin	-2914
▁tuple	-2915
▁prom	-2916
book	-2917
▁character	-2918
($	-2919
oved	-2920
▁probably	-2921
▁30	-2922
▁Trans	-2923
▁uint	-2924
layer	-2925
▁Invalid	-2926
ersist	-2927
▁driver	-2928
];	-2929
ym	-2930
37	-2931
▁proper	-2932
Back	-2933
lar	-2934
char	-2935
Settings	-2936
▁diff	-2937
▁strings	-2938
17	-2939
▁decode	-2940
uto	-2941
oute	-2942
▁meta	-2943
mutable	-2944
▁Name	-2945
';	-2946
mark	-2947
▁tests	-2948
ted	-2949
uil	-2950
▁prep	-2951
▁adding	-2952
▁tell	-2953
▁operation	-2954
udent	-2955
▁Check	-2956
▁Boolean	-2957
▁Ab	-2958
encies	-2959
▁$("	-2960
▁transform	-2961
UP	-2962
▁ask	-2963
urren	-2964
irection	-2965
iver	-2966
comm	-2967
core	-2968
ithm	-2969
Callback	-2970
gor	-2971
Trace	-2972
38	-2973
TO	-2974
▁sent	-2975
sumer	-2976
imary	-2977
▁getattr	-2978
▁apprec	-2979
New	-2980
Params	-2981
aries	-2982
Collection	-2983
▁numpy	-2984
▁children	-2985
▁attrs	-2986
▁zip	-2987
ross	-2988
100	-2989
Port	-2990
▁begin	-2991
▁head	-2992
▁synchronized	-2993
css	-2994
number	-2995
TYPE	-2996
▁te	-2997
andas	-2998
▁environment	-2999
func	-3000
));	-3001
ALUE	-3002
(){	-3003
▁occ	-3004
constructor	-3005
session	-3006
▁reader	-3007
google	-3008
Dialog	-3009
store	-3010
Descriptor	-3011
Controller	-3012
▁1000	-3013
▁getString	-3014
itten	-3015
▁far	-3016
InputStream	-3017
▁produ	-3018
Pool	-3019
inst	-3020
CON	-3021
4,	-3022
▁regex	-3023
▁documentation	-3024
▁writer	-3025
▁needs	-3026
▁Output	-3027
def	-3028
▁incre	-3029
▁async	-3030
▁Se	-3031
board	-3032
uilt	-3033
ached	-3034
php	-3035
Body	-3036
[1	-3037
▁year	-3038
tract	-3039
▁existing	-3040
▁weight	-3041
▁fake	-3042
▁cho	-3043
▁Event	-3044
▁calling	-3045
rad	-3046
▁Model	-3047
▁After	-3048
late	-3049
atform	-3050
show	-3051
mode	-3052
▁implementation	-3053
▁retr	-3054
leep	-3055
▁Index	-3056
▁constant	-3057
Job	-3058
▁IllegalArgument	-3059
▁resolve	-3060
▁supp	-3061
ithub	-3062
▁fire	-3063
stream	-3064
ram	-3065
▁execut	-3066
28	-3067
▁Act	-3068
▁collect	-3069
▁logging	-3070
▁language	-3071
▁Action	-3072
style	-3073
▁Window	-3074
▁Sub	-3075
way	-3076
ntil	-3077
Pr	-3078
4.	-3079
▁Content	-3080
▁small	-3081
istory	-3082
26	-3083
cent	-3084
SC	-3085
space	-3086
ENT	-3087
co	-3088
active	-3089
PT	-3090
uction	-3091
▁remote	-3092
▁structure	-3093
MO	-3094
des	-3095
▁author	-3096
Bar	-3097
▁present	-3098
▁setting	-3099
SH	-3100
35	-3101
plex	-3102
ately	-3103
options	-3104
Tim	-3105
▁around	-3106
Search	-3107
ensions	-3108
Template	-3109
Menu	-3110
rior	-3111
ocus	-3112
Socket	-3113
bl	-3114
▁finish	-3115
▁ng	-3116
NotNull	-3117
Ext	-3118
Statement	-3119
▁40	-3120
aly	-3121
plot	-3122
ention	-3123
▁Local	-3124
ied	-3125
header	-3126
luster	-3127
split	-3128
▁gets	-3129
▁inf	-3130
Work	-3131
▁getA	-3132
▁grid	-3133
▁dig	-3134
▁operator	-3135
▁calls	-3136
▁bool	-3137
Call	-3138
target	-3139
▁protocol	-3140
ui	-3141
etrics	-3142
▁cor	-3143
buf	-3144
-01	-3145
light	-3146
▁auto	-3147
argin	-3148
▁solve	-3149
0'	-3150
kens	-3151
▁made	-3152
▁extension	-3153
▁lin	-3154
NO	-3155
rupt	-3156
▁inv	-3157
▁sorted	-3158
Endpoint	-3159
Range	-3160
▁dim	-3161
Files	-3162
licit	-3163
▁Using	-3164
▁develop	-3165
Changed	-3166
ours	-3167
imation	-3168
dat	-3169
Channel	-3170
▁Context	-3171
Definition	-3172
▁requests	-3173
▁50	-3174
▁inner	-3175
AGE	-3176
Host	-3177
txt	-3178
virtual	-3179
Option	-3180
▁plot	-3181
▁track	-3182
uplic	-3183
▁Inst	-3184
hing	-3185
▁fs	-3186
emo	-3187
▁};	-3188
▁Android	-3189
▁Rep	-3190
bit	-3191
Timeout	-3192
sign	-3193
▁correctly	-3194
▁characters	-3195
pth	-3196
anch	-3197
▁dictionary	-3198
▁messages	-3199
ialized	-3200
▁Spring	-3201
▁Item	-3202
▁stdout	-3203
acity	-3204
▁cf	-3205
IME	-3206
29	-3207
:\	-3208
oud	-3209
▁Simple	-3210
avig	-3211
48	-3212
▁unique	-3213
39	-3214
Constants	-3215
▁proxy	-3216
etric	-3217
▁updated	-3218
▁attach	-3219
Root	-3220
document	-3221
▁Field	-3222
the	-3223
IG	-3224
▁HashMap	-3225
▁skip	-3226
▁Create	-3227
▁img	-3228
FO	-3229
▁autom	-3230
====	-3231
▁Char	-3232
▁django	-3233
▁words	-3234
entication	-3235
ird	-3236
close	-3237
day	-3238
achine	-3239
','	-3240
▁happen	-3241
▁figure	-3242
▁ach	-3243
Web	-3244
▁redirect	-3245
200	-3246
▁redu	-3247
de	-3248
▁Dis	-3249
▁player	-3250
▁trace	-3251
▁DOM	-3252
▁sched	-3253
▁inputs	-3254
DIT	-3255
gorithm	-3256
▁day	-3257
OutputStream	-3258
uring	-3259
project	-3260
iteral	-3261
▁directly	-3262
Directory	-3263
":"	-3264
ma	-3265
▁Gener	-3266
pha	-3267
▁someone	-3268
▁Google	-3269
lush	-3270
▁cap	-3271
▁force	-3272
aining	-3273
▁lookup	-3274
ccount	-3275
▁points	-3276
olute	-3277
null	-3278
▁patch	-3279
Last	-3280
▁flags	-3281
SQL	-3282
scri	-3283
Mock	-3284
▁widget	-3285
▁getMessage	-3286
▁factory	-3287
rate	-3288
UN	-3289
rowable	-3290
level	-3291
ordin	-3292
▁chunk	-3293
▁mask	-3294
height	-3295
ullable	-3296
▁though	-3297
MS	-3298
ATH	-3299
Ad	-3300
ased	-3301
ains	-3302
▁define	-3303
▁prop	-3304
address	-3305
▁StringBuilder	-3306
EST	-3307
struction	-3308
[0]	-3309
DO	-3310
▁contents	-3311
▁2,	-3312
▁txt	-3313
([	-3314
ok	-3315
clipse	-3316
▁nothing	-3317
EL	-3318
template	-3319
Obj	-3320
▁returned	-3321
▁fla	-3322
▁never	-3323
layout	-3324
▁Method	-3325
Override	-3326
▁loaded	-3327
Interface	-3328
ium	-3329
▁Default	-3330
dk	-3331
ROR	-3332
Java	-3333
▁bad	-3334
2)	-3335
▁volume	-3336
INT	-3337
▁Ref	-3338
getElementById	-3339
dist	-3340
▁space	-3341
▁category	-3342
sec	-3343
task	-3344
opt	-3345
▁First	-3346
▁refresh	-3347
service	-3348
ibern	-3349
▁everything	-3350
mary	-3351
UM	-3352
▁Server	-3353
inner	-3354
▁evalu	-3355
▁enc	-3356
ibernate	-3357
▁activity	-3358
msg	-3359
▁however	-3360
Description	-3361
▁pick	-3362
ategy	-3363
▁Base	-3364
req	-3365
▁train	-3366
-8	-3367
▁We	-3368
▁DEFAULT	-3369
ixel	-3370
ift	-3371
▁advance	-3372
▁Result	-3373
▁Buffer	-3374
VI	-3375
Max	-3376
Ident	-3377
▁fr	-3378
▁parts	-3379
▁were	-3380
TER	-3381
keys	-3382
ci	-3383
egate	-3384
pose	-3385
▁attempt	-3386
fields	-3387
▁reverse	-3388
One	-3389
▁scale	-3390
ello	-3391
CTION	-3392
▁Double	-3393
▁integer	-3394
▁startswith	-3395
Top	-3396
▁month	-3397
▁Rem	-3398
creen	-3399
▁trigger	-3400
▁storage	-3401
▁until	-3402
ulate	-3403
▁amount	-3404
▁canvas	-3405
▁saved	-3406
icate	-3407
source	-3408
▁compute	-3409
▁Service	-3410
▁Element	-3411
ene	-3412
▁person	-3413
DER	-3414
Doc	-3415
▁core	-3416
plete	-3417
atically	-3418
Python	-3419
items	-3420
▁endpoint	-3421
▁Edit	-3422
▁matches	-3423
▁few	-3424
nable	-3425
▁itself	-3426
▁Val	-3427
packages	-3428
▁Qu	-3429
strap	-3430
Servlet	-3431
stack	-3432
iff	-3433
▁utf	-3434
jar	-3435
nal	-3436
▁One	-3437
▁seconds	-3438
KEY	-3439
utils	-3440
ster	-3441
Control	-3442
▁gives	-3443
Nodes	-3444
▁Json	-3445
cheme	-3446
Title	-3447
▁hasattr	-3448
▁\\	-3449
▁arr	-3450
▁sa	-3451
ES	-3452
ters	-3453
▁provider	-3454
▁Client	-3455
▁game	-3456
▁0.5	-3457
▁addition	-3458
zz	-3459
US	-3460
▁EDIT	-3461
45	-3462
last	-3463
]:	-3464
lags	-3465
▁labels	-3466
vis	-3467
▁desc	-3468
▁clone	-3469
▁lar	-3470
src	-3471
▁Sec	-3472
▁io	-3473
▁engine	-3474
▁Fil	-3475
Sp	-3476
Storage	-3477
Attributes	-3478
ood	-3479
copy	-3480
▁css	-3481
▁With	-3482
▁guess	-3483
▁CSS	-3484
▁cause	-3485
▁19	-3486
▁behavi	-3487
inding	-3488
wise	-3489
/>	-3490
ouch	-3491
▁currently	-3492
first	-3493
▁typ	-3494
Encod	-3495
cast	-3496
▁Auth	-3497
:0	-3498
hash	-3499
ists	-3500
ability	-3501
86	-3502
▁Throwable	-3503
▁Su	-3504
ides	-3505
▁warn	-3506
oding	-3507
▁undefined	-3508
▁Sel	-3509
ories	-3510
aN	-3511
Wh	-3512
ZE	-3513
▁()	-3514
▁website	-3515
▁passed	-3516
Json	-3517
▁uuid	-3518
email	-3519
ators	-3520
Rel	-3521
▁didn	-3522
▁gl	-3523
If	-3524
Pane	-3525
▁score	-3526
▁dt	-3527
ints	-3528
ailure	-3529
derr	-3530
ively	-3531
▁details	-3532
meta	-3533
escape	-3534
filename	-3535
3"	-3536
connect	-3537
arsh	-3538
▁push	-3539
egment	-3540
▁Response	-3541
itable	-3542
▁role	-3543
▁getType	-3544
▁})	-3545
Resol	-3546
▁vm	-3547
▁cla	-3548
▁See	-3549
▁14	-3550
▁editor	-3551
▁layer	-3552
oder	-3553
OS	-3554
password	-3555
▁appreciated	-3556
▁member	-3557
illis	-3558
angle	-3559
▁modules	-3560
Tool	-3561
▁generated	-3562
5.	-3563
▁valueOf	-3564
▁installed	-3565
▁EX	-3566
▁Tra	-3567
▁dst	-3568
Package	-3569
▁jar	-3570
Protocol	-3571
Parameters	-3572
▁Rec	-3573
▁named	-3574
umb	-3575
ts	-3576
▁Query	-3577
▁Des	-3578
position	-3579
▁Link	-3580
fiddle	-3581
▁commit	-3582
Implement	-3583
▁none	-3584
vices	-3585
▁nested	-3586
▁Open	-3587
remove	-3588
ountry	-3589
▁represent	-3590
ressed	-3591
▁handl	-3592
LECT	-3593
Style	-3594
▁Immutable	-3595
HTML	-3596
▁avoid	-3597
Variable	-3598
▁bean	-3599
etwork	-3600
▁rather	-3601
▁internal	-3602
supported	-3603
fn	-3604
▁written	-3605
▁takes	-3606
▁"/	-3607
▁modify	-3608
▁Arrays	-3609
▁shows	-3610
NS	-3611
oom	-3612
▁platform	-3613
tty	-3614
▁fn	-3615
60	-3616
▁Task	-3617
▁fact	-3618
▁mouse	-3619
wo	-3620
docs	-3621
cd	-3622
▁vert	-3623
▁GET	-3624
spring	-3625
▁groups	-3626
ls	-3627
▁pi	-3628
▁POST	-3629
▁rs	-3630
▁feed	-3631
Conn	-3632
▁Number	-3633
▁NO	-3634
▁jquery	-3635
▁icon	-3636
DF	-3637
Lock	-3638
▁Form	-3639
▁prev	-3640
▁Cal	-3641
cp	-3642
kw	-3643
59	-3644
▁math	-3645
irm	-3646
ker	-3647
▁profile	-3648
▁All	-3649
▁binary	-3650
xx	-3651
ude	-3652
▁eq	-3653
eom	-3654
android	-3655
eel	-3656
err	-3657
▁fixed	-3658
▁rad	-3659
▁arch	-3660
▁drop	-3661
oto	-3662
IC	-3663
▁CO	-3664
▁provide	-3665
▁Table	-3666
vironment	-3667
▁apache	-3668
urrency	-3669
fs	-3670
ipp	-3671
▁border	-3672
▁merge	-3673
▁whole	-3674
▁partic	-3675
▁expr	-3676
▁release	-3677
▁Process	-3678
▁note	-3679
▁DB	-3680
▁timestamp	-3681
amel	-3682
Users	-3683
▁$('#	-3684
Can	-3685
_0	-3686
itive	-3687
▁decla	-3688
asic	-3689
▁writing	-3690
using	-3691
▁standard	-3692
Holder	-3693
pol	-3694
SY	-3695
70	-3696
Graph	-3697
PER	-3698
card	-3699
▁complete	-3700
▁Option	-3701
section	-3702
▁inc	-3703
Parent	-3704
Policy	-3705
tim	-3706
peed	-3707
Rece	-3708
Keys	-3709
▁mov	-3710
▁enable	-3711
dim	-3712
Cell	-3713
anges	-3714
▁difference	-3715
UID	-3716
mock	-3717
▁prefer	-3718
Items	-3719
▁starts	-3720
▁book	-3721
▁world	-3722
▁external	-3723
ian	-3724
▁making	-3725
▁basic	-3726
ORT	-3727
IP	-3728
▁related	-3729
▁exactly	-3730
▁manager	-3731
ittle	-3732
▁vo	-3733
▁symbol	-3734
entials	-3735
7.	-3736
gener	-3737
▁Big	-3738
▁comb	-3739
StackTrace	-3740
expected	-3741
display	-3742
queue	-3743
holder	-3744
2.1	-3745
ao	-3746
▁syntax	-3747
▁~	-3748
orter	-3749
▁Resource	-3750
Ind	-3751
▁achieve	-3752
▁makes	-3753
▁pred	-3754
23	-3755
▁execution	-3756
Iterator	-3757
secon	-3758
▁ms	-3759
'.	-3760
▁effect	-3761
▁security	-3762
▁matrix	-3763
asure	-3764
▁Project	-3765
▁grad	-3766
▁csv	-3767
Mapping	-3768
iate	-3769
▁threads	-3770
▁OS	-3771
▁ok	-3772
▁transaction	-3773
▁Entry	-3774
yles	-3775
roy	-3776
▁indices	-3777
▁counter	-3778
ember	-3779
▁Example	-3780
76	-3781
▁0.1	-3782
▁dialog	-3783
ools	-3784
▁fit	-3785
▁reading	-3786
XML	-3787
44	-3788
static	-3789
.0.0	-3790
ended	-3791
▁sequence	-3792
->	-3793
Selected	-3794
▁invoke	-3795
▁entries	-3796
▁sleep	-3797
75	-3798
▁ensure	-3799
utorial	-3800
oose	-3801
▁separate	-3802
▁tog	-3803
▁pretty	-3804
▁hand	-3805
▁needed	-3806
ording	-3807
▁commands	-3808
▁ajax	-3809
olog	-3810
Min	-3811
riority	-3812
▁three	-3813
▁integ	-3814
▁consider	-3815
90	-3816
▁Application	-3817
▁ne	-3818
tra	-3819
▁From	-3820
▁pair	-3821
▁Django	-3822
▁tm	-3823
boot	-3824
▁mapping	-3825
2_	-3826
Wrapper	-3827
▁deploy	-3828
▁repe	-3829
Repository	-3830
NotFound	-3831
Elements	-3832
HP	-3833
▁Configuration	-3834
▁Function	-3835
▁easy	-3836
▁prepare	-3837
▁Could	-3838
7,	-3839
TY	-3840
13	-3841
aunch	-3842
▁route	-3843
IS	-3844
▁UT	-3845
icient	-3846
▁Since	-3847
AC	-3848
▁payload	-3849
▁testing	-3850
▁CON	-3851
▁built	-3852
Icon	-3853
delete	-3854
ASE	-3855
apache	-3856
None	-3857
napshot	-3858
▁configure	-3859
▁scan	-3860
ten	-3861
join	-3862
Tab	-3863
▁arrays	-3864
▁sever	-3865
▁compar	-3866
MENT	-3867
ymbol	-3868
only	-3869
bose	-3870
als	-3871
right	-3872
ROM	-3873
DATE	-3874
left	-3875
▁pd	-3876
rel	-3877
▁32	-3878
uler	-3879
Rule	-3880
bytes	-3881
ords	-3882
wd	-3883
▁pur	-3884
Conf	-3885
={	-3886
Pos	-3887
ght	-3888
▁substring	-3889
▁gen	-3890
▁center	-3891
▁specify	-3892
lack	-3893
▁keyword	-3894
▁bound	-3895
▁Iterator	-3896
▁least	-3897
Post	-3898
ison	-3899
▁Abstract	-3900
conf	-3901
▁);	-3902
▁certain	-3903
otype	-3904
▁IE	-3905
▁selector	-3906
▁getKey	-3907
framework	-3908
▁padding	-3909
▁properly	-3910
▁UI	-3911
▁Exec	-3912
Ph	-3913
issions	-3914
▁wrap	-3915
erate	-3916
range	-3917
▁region	-3918
▁resources	-3919
▁Document	-3920
Open	-3921
Metadata	-3922
▁TEST	-3923
▁13	-3924
ribution	-3925
▁Foo	-3926
quired	-3927
Be	-3928
"]	-3929
entry	-3930
bs	-3931
Dict	-3932
PRO	-3933
weight	-3934
▁Comp	-3935
AM	-3936
▁great	-3937
ificate	-3938
▁imp	-3939
▁Valid	-3940
▁stats	-3941
▁little	-3942
▁State	-3943
apter	-3944
▁chart	-3945
plugin	-3946
libs	-3947
▁maybe	-3948
▁native	-3949
▁framework	-3950
1_	-3951
▁less	-3952
▁initialize	-3953
pg	-3954
▁follows	-3955
import	-3956
unit	-3957
ialization	-3958
window	-3959
eft	-3960
▁Dec	-3961
JSON	-3962
▁NaN	-3963
▁big	-3964
VALUE	-3965
mail	-3966
itude	-3967
amily	-3968
Widget	-3969
ives	-3970
DS	-3971
▁selection	-3972
bind	-3973
▁whether	-3974
era	-3975
▁lists	-3976
▁setText	-3977
▁mention	-3978
▁bottom	-3979
medi	-3980
just	-3981
▁assertIs	-3982
▁stored	-3983
▁recomm	-3984
DK	-3985
UB	-3986
▁00	-3987
omething	-3988
▁features	-3989
▁partition	-3990
ecess	-3991
000000	-3992
Schema	-3993
▁Tree	-3994
ump	-3995
Perm	-3996
▁<<	-3997
▁runs	-3998
ius	-3999
fully	-4000
ifest	-4001
▁Just	-4002
▁Fire	-4003
((	-4004
▁indent	-4005
▁18	-4006
▁Pl	-4007
▁Windows	-4008
URI	-4009
▁enabled	-4010
▁FI	-4011
▁loading	-4012
▁specified	-4013
Transaction	-4014
which	-4015
Sign	-4016
▁Collections	-4017
3'	-4018
▁stderr	-4019
Handle	-4020
▁loads	-4021
▁Param	-4022
▁quot	-4023
aps	-4024
First	-4025
▁Stream	-4026
▁React	-4027
▁problems	-4028
Current	-4029
prefix	-4030
▁sv	-4031
▁Column	-4032
dev	-4033
Editor	-4034
▁echo	-4035
▁Read	-4036
raries	-4037
▁ir	-4038
pond	-4039
iag	-4040
▁supported	-4041
▁Update	-4042
▁descri	-4043
▁Does	-4044
68	-4045
▁loader	-4046
▁complet	-4047
▁started	-4048
Device	-4049
settings	-4050
zone	-4051
ards	-4052
▁our	-4053
step	-4054
Pattern	-4055
}}	-4056
container	-4057
BU	-4058
pons	-4059
Millis	-4060
▁hard	-4061
▁bucket	-4062
▁turn	-4063
▁definition	-4064
▁expand	-4065
Write	-4066
():	-4067
▁cred	-4068
case	-4069
Mapper	-4070
ality	-4071
▁interval	-4072
Fragment	-4073
Uri	-4074
▁exchange	-4075
Proxy	-4076
eric	-4077
atal	-4078
OK	-4079
tab	-4080
ATA	-4081
connection	-4082
Red	-4083
▁checked	-4084
Lib	-4085
▁components	-4086
▁clicked	-4087
▁dataset	-4088
ULL	-4089
eno	-4090
github	-4091
rt	-4092
replace	-4093
▁hidden	-4094
▁Connection	-4095
depend	-4096
▁logic	-4097
▁utils	-4098
Registry	-4099
Pointer	-4100
1/	-4101
49	-4102
handler	-4103
▁annotation	-4104
man	-4105
eek	-4106
SO	-4107
▁pandas	-4108
acy	-4109
▁manag	-4110
▁Chrome	-4111
Ids	-4112
▁links	-4113
aterial	-4114
Only	-4115
▁unicode	-4116
▁2.0	-4117
▁PRO	-4118
▁particular	-4119
ca	-4120
Cal	-4121
▁runtime	-4122
▁Job	-4123
foo	-4124
Feature	-4125
▁worked	-4126
ought	-4127
▁Grid	-4128
▁shell	-4129
CP	-4130
SIZE	-4131
component	-4132
▁progress	-4133
▁days	-4134
▁Del	-4135
cing	-4136
▁automatically	-4137
▁happens	-4138
▁props	-4139
home	-4140
▁margin	-4141
▁instances	-4142
6,	-4143
["	-4144
▁recent	-4145
▁PHP	-4146
outer	-4147
▁alias	-4148
▁FROM	-4149
alk	-4150
stri	-4151
etry	-4152
▁*/	-4153
▁Custom	-4154
My	-4155
-9	-4156
▁flush	-4157
▁dataframe	-4158
▁Nullable	-4159
▁pid	-4160
▁Graph	-4161
like	-4162
▁getText	-4163
▁TAB	-4164
send	-4165
▁Sc	-4166
ceed	-4167
▁simpl	-4168
▁repo	-4169
▁compiler	-4170
sort	-4171
▁ER	-4172
▁addr	-4173
eer	-4174
▁comments	-4175
▁entire	-4176
Mon	-4177
Prefix	-4178
▁MAX	-4179
Active	-4180
....	-4181
Implemented	-4182
Interval	-4183
▁('	-4184
vision	-4185
VM	-4186
▁provided	-4187
▁Main	-4188
▁ui	-4189
▁future	-4190
▁await	-4191
Pre	-4192
▁cookie	-4193
▁$("#	-4194
where	-4195
Selection	-4196
ycle	-4197
icro	-4198
▁pages	-4199
ges	-4200
▁ims	-4201
▁several	-4202
▁Ob	-4203
7/	-4204
Edit	-4205
domain	-4206
▁capt	-4207
Results	-4208
jsfiddle	-4209
cover	-4210
Warning	-4211
Step	-4212
▁duplic	-4213
inder	-4214
▁cancel	-4215
▁dependencies	-4216
enium	-4217
▁Source	-4218
acter	-4219
▁owner	-4220
▁bro	-4221
ALI	-4222
tree	-4223
Ns	-4224
POST	-4225
▁equalTo	-4226
tool	-4227
▁3,	-4228
▁verbose	-4229
▁policy	-4230
▁Token	-4231
▁usage	-4232
me	-4233
graph	-4234
▁complex	-4235
▁backend	-4236
argument	-4237
▁Session	-4238
example	-4239
▁intent	-4240
▁failure	-4241
rows	-4242
▁docs	-4243
Selector	-4244
▁elem	-4245
MBOL	-4246
▁sess	-4247
ublic	-4248
▁large	-4249
▁Angular	-4250
▁''	-4251
▁calculate	-4252
▁Color	-4253
return	-4254
▁Tim	-4255
▁Block	-4256
▁algorithm	-4257
methods	-4258
▁Cannot	-4259
handle	-4260
pdown	-4261
▁rc	-4262
exception	-4263
1:	-4264
▁upper	-4265
ixed	-4266
Vector	-4267
hs	-4268
ture	-4269
66	-4270
menu	-4271
▁inject	-4272
obile	-4273
▁activ	-4274
▁validation	-4275
Render	-4276
Cre	-4277
▁changing	-4278
▁SO	-4279
▁panel	-4280
▁TYPE	-4281
▁Component	-4282
▁virtual	-4283
grad	-4284
Left	-4285
88	-4286
▁allowed	-4287
Sequence	-4288
▁rect	-4289
ippet	-4290
▁yet	-4291
ube	-4292
Report	-4293
▁60	-4294
▁fp	-4295
▁win	-4296
Bundle	-4297
dbc	-4298
79	-4299
Op	-4300
▁cast	-4301
▁machine	-4302
false	-4303
▁Some	-4304
▁1)	-4305
has	-4306
▁topic	-4307
▁removed	-4308
lation	-4309
Close	-4310
▁NOT	-4311
▁Buffered	-4312
▁wra	-4313
▁design	-4314
Build	-4315
▁issues	-4316
▁shown	-4317
lash	-4318
▁ts	-4319
SYMBOL	-4320
▁buttons	-4321
ropdown	-4322
▁cases	-4323
▁Tem	-4324
FILE	-4325
▁25	-4326
▁free	-4327
uation	-4328
Logger	-4329
▁rot	-4330
Boolean	-4331
▁media	-4332
come	-4333
admin	-4334
▁round	-4335
SL	-4336
properties	-4337
▁pla	-4338
loyee	-4339
▁executed	-4340
Draw	-4341
Are	-4342
▁Oper	-4343
Children	-4344
▁subject	-4345
▁IP	-4346
Double	-4347
▁programm	-4348
eries	-4349
▁Parse	-4350
▁Id	-4351
cmd	-4352
▁angular	-4353
▁mail	-4354
▁Work	-4355
▁AttributeError	-4356
oded	-4357
▁WH	-4358
reshold	-4359
::	-4360
▁outside	-4361
Vo	-4362
andid	-4363
▁NotImplemented	-4364
Convert	-4365
▁Failed	-4366
▁Group	-4367
▁bin	-4368
ORM	-4369
▁multip	-4370
lex	-4371
istration	-4372
▁helps	-4373
▁/*	-4374
▁subprocess	-4375
save	-4376
▁protobuf	-4377
▁recurs	-4378
addr	-4379
▁shared	-4380
'],	-4381
▁24	-4382
++)	-4383
▁Intent	-4384
▁primary	-4385
Scope	-4386
lin	-4387
▁{'	-4388
▁parsed	-4389
property	-4390
submit	-4391
ek	-4392
fox	-4393
Custom	-4394
▁Person	-4395
servable	-4396
▁seen	-4397
▁increment	-4398
Var	-4399
0"	-4400
0_	-4401
repr	-4402
▁span	-4403
▁tokens	-4404
how	-4405
▁TABSYMBOL	-4406
▁generator	-4407
▁wrapper	-4408
▁INT	-4409
Tr	-4410
▁listen	-4411
oup	-4412
----------------	-4413
feature	-4414
▁vector	-4415
Details	-4416
usr	-4417
amera	-4418
▁$.	-4419
csv	-4420
Non	-4421
herit	-4422
▁signature	-4423
▁hasNext	-4424
vm	-4425
▁InputStream	-4426
▁ker	-4427
▁mig	-4428
egin	-4429
icker	-4430
▁Search	-4431
▁quite	-4432
▁containing	-4433
▁master	-4434
▁direction	-4435
Stats	-4436
mask	-4437
6.	-4438
yg	-4439
PATH	-4440
Password	-4441
elist	-4442
▁outputs	-4443
ariables	-4444
▁Line	-4445
Executor	-4446
▁receive	-4447
javascript	-4448
▁hide	-4449
▁assertNotNull	-4450
▁annot	-4451
egative	-4452
tensor	-4453
▁additional	-4454
▁rv	-4455
NG	-4456
▁ways	-4457
▁delta	-4458
edException	-4459
▁repository	-4460
offset	-4461
inc	-4462
Inst	-4463
Support	-4464
▁ord	-4465
Args	-4466
ident	-4467
▁retrieve	-4468
▁spring	-4469
▁visible	-4470
ract	-4471
hel	-4472
product	-4473
thread	-4474
ocation	-4475
▁SELECT	-4476
▁getProperty	-4477
MA	-4478
▁filters	-4479
▁Ad	-4480
ario	-4481
▁paths	-4482
Term	-4483
kwargs	-4484
▁Build	-4485
socket	-4486
.)	-4487
._	-4488
▁Command	-4489
login	-4490
▁requires	-4491
ANCE	-4492
mission	-4493
▁hello	-4494
▁cs	-4495
Driver	-4496
ogn	-4497
▁wanted	-4498
manager	-4499
btn	-4500
SP	-4501
▁javax	-4502
▁snapshot	-4503
▁equ	-4504
emon	-4505
▁closed	-4506
OP	-4507
▁ast	-4508
▁zero	-4509
Engine	-4510
▁dom	-4511
▁Null	-4512
sets	-4513
icon	-4514
:5	-4515
▁alpha	-4516
▁dynamic	-4517
Xml	-4518
▁tasks	-4519
tk	-4520
aa	-4521
▁norm	-4522
Visible	-4523
▁mk	-4524
device	-4525
▁price	-4526
osed	-4527
Database	-4528
▁UP	-4529
▁regular	-4530
oring	-4531
▁Hello	-4532
▁passing	-4533
Enum	-4534
spect	-4535
▁optim	-4536
1.0	-4537
▁est	-4538
▁relative	-4539
zip	-4540
ze	-4541
▁says	-4542
sm	-4543
▁rand	-4544
Runtime	-4545
HO	-4546
Ab	-4547
GER	-4548
▁publish	-4549
▁Vector	-4550
Main	-4551
▁prec	-4552
encode	-4553
▁appear	-4554
▁escape	-4555
ike	-4556
▁onclick	-4557
'),	-4558
SV	-4559
np	-4560
ignment	-4561
eros	-4562
▁sur	-4563
=0	-4564
▁dependency	-4565
8,	-4566
▁care	-4567
Rect	-4568
2/	-4569
Progress	-4570
▁boot	-4571
pect	-4572
▁delay	-4573
ERE	-4574
The	-4575
Generator	-4576
ART	-4577
▁period	-4578
driver	-4579
▁override	-4580
▁explicit	-4581
▁Entity	-4582
▁tensor	-4583
▁altern	-4584
utdown	-4585
▁Const	-4586
▁performance	-4587
mapp	-4588
▁thought	-4589
▁Unsupported	-4590
estion	-4591
▁Sw	-4592
aut	-4593
quare	-4594
make	-4595
▁<!	-4596
float	-4597
▁starting	-4598
▁embed	-4599
▁stuff	-4600
▁OK	-4601
▁opts	-4602
▁flow	-4603
▁Order	-4604
▁desired	-4605
▁later	-4606
▁Page	-4607
▁charset	-4608
3_	-4609
▁flat	-4610
▁mac	-4611
oment	-4612
▁[]	-4613
ven	-4614
bound	-4615
▁localhost	-4616
Execution	-4617
Plugin	-4618
▁student	-4619
Prefer	-4620
ology	-4621
Resolver	-4622
control	-4623
cr	-4624
▁constra	-4625
▁views	-4626
ecessary	-4627
Headers	-4628
▁libraries	-4629
arshall	-4630
Mark	-4631
▁suff	-4632
png	-4633
plan	-4634
park	-4635
ViewById	-4636
▁Property	-4637
▁concat	-4638
▁LI	-4639
▁actions	-4640
▁dot	-4641
anks	-4642
▁Util	-4643
▁abc	-4644
▁examples	-4645
▁ops	-4646
Profile	-4647
▁prevent	-4648
▁special	-4649
▁ep	-4650
▁{}	-4651
▁enough	-4652
▁Multi	-4653
results	-4654
▁pointer	-4655
▁seq	-4656
▁cir	-4657
▁getDefault	-4658
atever	-4659
▁behavior	-4660
icture	-4661
area	-4662
▁determ	-4663
GET	-4664
Msg	-4665
▁17	-4666
headers	-4667
tries	-4668
Dist	-4669
Processor	-4670
classes	-4671
SET	-4672
▁enumerate	-4673
cu	-4674
Account	-4675
▁coordin	-4676
▁general	-4677
Compar	-4678
off	-4679
Memory	-4680
Track	-4681
▁ds	-4682
install	-4683
ITE	-4684
AND	-4685
ler	-4686
▁-=	-4687
Bit	-4688
▁Count	-4689
▁Pack	-4690
▁KEY	-4691
yntax	-4692
▁rules	-4693
▁versions	-4694
▁series	-4695
eople	-4696
▁Start	-4697
▁Point	-4698
Ignore	-4699
▁construct	-4700
AV	-4701
clus	-4702
Tests	-4703
▁disable	-4704
temp	-4705
▁Per	-4706
▁Qt	-4707
HE	-4708
="#	-4709
▁fast	-4710
▁exceptions	-4711
▁fragment	-4712
▁md	-4713
Region	-4714
sd	-4715
▁btn	-4716
parser	-4717
verage	-4718
▁cpu	-4719
[1]	-4720
▁notify	-4721
sible	-4722
pass	-4723
Async	-4724
buffer	-4725
▁duration	-4726
Success	-4727
Future	-4728
▁fd	-4729
▁signal	-4730
21	-4731
ernal	-4732
▁aggreg	-4733
rift	-4734
Constra	-4735
Select	-4736
SION	-4737
▁iterate	-4738
77	-4739
random	-4740
▁returning	-4741
"/>	-4742
laration	-4743
grade	-4744
nter	-4745
▁hex	-4746
▁DI	-4747
▁Eclipse	-4748
▁due	-4749
imes	-4750
Each	-4751
▁Tag	-4752
QUE	-4753
▁fore	-4754
ongo	-4755
Multi	-4756
2:	-4757
▁comes	-4758
gent	-4759
loader	-4760
leton	-4761
▁Instead	-4762
allel	-4763
▁wonder	-4764
▁exper	-4765
▁ww	-4766
▁perf	-4767
Decimal	-4768
▁dynamically	-4769
▁Change	-4770
##	-4771
empty	-4772
▁disk	-4773
▁Str	-4774
▁tutorial	-4775
Identifier	-4776
Ins	-4777
▁bug	-4778
▁NAME	-4779
faces	-4780
counter	-4781
OUT	-4782
▁qual	-4783
Cap	-4784
▁binding	-4785
▁destination	-4786
▁choice	-4787
▁bundle	-4788
▁tables	-4789
▁assoc	-4790
▁implemented	-4791
▁fac	-4792
▁quick	-4793
LL	-4794
▁ERROR	-4795
kit	-4796
Failure	-4797
oriz	-4798
ips	-4799
Bounds	-4800
username	-4801
arm	-4802
imate	-4803
uming	-4804
▁sit	-4805
▁KeyError	-4806
▁scal	-4807
▁ones	-4808
▁rele	-4809
go	-4810
ifactId	-4811
Over	-4812
Total	-4813
▁snippet	-4814
▁modified	-4815
ITY	-4816
"><	-4817
wr	-4818
▁OR	-4819
▁cfg	-4820
Attr	-4821
chor	-4822
ival	-4823
▁Look	-4824
▁quote	-4825
▁-->	-4826
▁Access	-4827
Runner	-4828
▁recommend	-4829
PRE	-4830
▁Ptr	-4831
▁explain	-4832
▁persist	-4833
push	-4834
CESS	-4835
▁unknown	-4836
WS	-4837
▁getData	-4838
De	-4839
Ow	-4840
TR	-4841
%;	-4842
▁asList	-4843
gb	-4844
▁ps	-4845
▁appears	-4846
▁manually	-4847
▁500	-4848
aml	-4849
enant	-4850
▁UN	-4851
center	-4852
▁questions	-4853
▁sal	-4854
▁pixel	-4855
▁allows	-4856
▁Button	-4857
▁ssl	-4858
Native	-4859
▁getL	-4860
▁Print	-4861
▁Import	-4862
▁bits	-4863
▁scheme	-4864
fr	-4865
axis	-4866
Extension	-4867
non	-4868
Sum	-4869
▁dispatch	-4870
profile	-4871
▁agent	-4872
▁locale	-4873
callback	-4874
▁share	-4875
na	-4876
API	-4877
iev	-4878
URE	-4879
wrap	-4880
▁registry	-4881
place	-4882
3)	-4883
▁reduce	-4884
ully	-4885
modules	-4886
Inf	-4887
▁===	-4888
▁Pre	-4889
alth	-4890
▁trim	-4891
▁safe	-4892
▁warnings	-4893
ALL	-4894
▁forward	-4895
plet	-4896
vars	-4897
ipe	-4898
▁Runnable	-4899
▁blank	-4900
▁records	-4901
timeout	-4902
ONE	-4903
ecause	-4904
▁packages	-4905
46	-4906
▁tools	-4907
▁assertIn	-4908
▁said	-4909
oper	-4910
▁New	-4911
▁steps	-4912
safe	-4913
▁sig	-4914
some	-4915
▁lead	-4916
rs	-4917
▁outfile	-4918
▁php	-4919
▁alloc	-4920
▁SQLException	-4921
▁answers	-4922
▁navig	-4923
plates	-4924
▁className	-4925
omic	-4926
Annotation	-4927
agic	-4928
▁Ext	-4929
▁zone	-4930
8.	-4931
rowse	-4932
▁slow	-4933
here	-4934
mem	-4935
▁Hope	-4936
▁mentioned	-4937
▁UTF	-4938
▁during	-4939
ayment	-4940
▁cv	-4941
Player	-4942
pk	-4943
fill	-4944
▁www	-4945
▁corres	-4946
Pair	-4947
ingleton	-4948
▁sync	-4949
urther	-4950
▁checkbox	-4951
ipher	-4952
loop	-4953
iation	-4954
▁marker	-4955
▁relation	-4956
(0	-4957
▁come	-4958
▁sq	-4959
▁generic	-4960
requ	-4961
Float	-4962
▁hold	-4963
▁chain	-4964
CA	-4965
anguage	-4966
system	-4967
(0,	-4968
▁operations	-4969
▁interpre	-4970
STR	-4971
pattern	-4972
▁supports	-4973
▁consumer	-4974
execute	-4975
Debug	-4976
Folder	-4977
access	-4978
▁Version	-4979
▁repr	-4980
▁goes	-4981
Sort	-4982
\"	-4983
▁choices	-4984
▁MO	-4985
1.1	-4986
▁Non	-4987
success	-4988
▁Write	-4989
▁partner	-4990
Matrix	-4991
3/	-4992
▁received	-4993
▁area	-4994
▁press	-4995
elow	-4996
checked	-4997
▁Rel	-4998
▁instant	-4999
oh	-5000
▁repla	-5001
none	-5002
▁64	-5003
chedule	-5004
tml	-5005
▁origin	-5006
▁plt	-5007
▁Load	-5008
▁company	-5009
89	-5010
pool	-5011
attribute	-5012
▁Module	-5013
Display	-5014
▁4.	-5015
ulation	-5016
Area	-5017
Me	-5018
DA	-5019
ktop	-5020
BUG	-5021
total	-5022
Strategy	-5023
onym	-5024
▁td	-5025
▁Ret	-5026
▁router	-5027
ifiers	-5028
Struct	-5029
score	-5030
ilities	-5031
▁third	-5032
▁processing	-5033
▁git	-5034
Do	-5035
▁evaluate	-5036
▁onCreate	-5037
springframework	-5038
network	-5039
▁cc	-5040
OF	-5041
▁distance	-5042
▁Random	-5043
▁es	-5044
register	-5045
▁May	-5046
▁timer	-5047
och	-5048
▁oprot	-5049
Vert	-5050
lier	-5051
istics	-5052
custom	-5053
PTION	-5054
oving	-5055
▁getCurrent	-5056
▁ideas	-5057
▁att	-5058
Av	-5059
▁analy	-5060
ffect	-5061
▁exclude	-5062
ves	-5063
Admin	-5064
points	-5065
▁placeholder	-5066
▁Sp	-5067
▁home	-5068
▁showing	-5069
▁dump	-5070
▁indexOf	-5071
▁according	-5072
ural	-5073
▁Current	-5074
CHE	-5075
strip	-5076
****	-5077
▁hit	-5078
This	-5079
})	-5080
.0.	-5081
job	-5082
Co	-5083
Parse	-5084
condition	-5085
Grid	-5086
Wr	-5087
toString	-5088
Iter	-5089
▁low	-5090
aging	-5091
▁255	-5092
▁animation	-5093
XX	-5094
▁Script	-5095
▁Ph	-5096
called	-5097
▁contact	-5098
formed	-5099
▁services	-5100
▁Enum	-5101
scription	-5102
▁loss	-5103
▁vol	-5104
▁slice	-5105
Len	-5106
riend	-5107
▁lik	-5108
Resources	-5109
▁xmlns	-5110
▁pract	-5111
edit	-5112
▁tick	-5113
Role	-5114
▁express	-5115
resource	-5116
▁Cache	-5117
▁printStackTrace	-5118
▁Unable	-5119
▁getParent	-5120
then	-5121
iddleware	-5122
account	-5123
▁people	-5124
Sl	-5125
cell	-5126
▁Am	-5127
atient	-5128
▁Post	-5129
▁delegate	-5130
▁pkg	-5131
▁COM	-5132
▁decimal	-5133
Api	-5134
▁ByteBuffer	-5135
31	-5136
Core	-5137
Messages	-5138
▁Database	-5139
▁Trace	-5140
ateway	-5141
▁dirname	-5142
InstanceState	-5143
ne	-5144
▁suite	-5145
izes	-5146
▁getIn	-5147
pv	-5148
idx	-5149
▁Status	-5150
ANG	-5151
▁displayed	-5152
Cluster	-5153
▁encoded	-5154
▁AND	-5155
▁Linked	-5156
▁branch	-5157
▁Bit	-5158
Delete	-5159
Internal	-5160
Us	-5161
▁latest	-5162
▁hope	-5163
imator	-5164
erefore	-5165
][	-5166
Ver	-5167
ness	-5168
▁consum	-5169
▁alt	-5170
▁nan	-5171
▁geom	-5172
Scroll	-5173
▁whatever	-5174
▁basically	-5175
▁detect	-5176
Product	-5177
▁po	-5178
▁past	-5179
▁Float	-5180
Short	-5181
imension	-5182
uses	-5183
ookies	-5184
47	-5185
▁easily	-5186
DD	-5187
Binding	-5188
▁unittest	-5189
▁car	-5190
StateException	-5191
65	-5192
DIR	-5193
▁'''	-5194
After	-5195
▁perfect	-5196
PUT	-5197
▁checking	-5198
▁tar	-5199
▁tz	-5200
dep	-5201
▁translate	-5202
apis	-5203
orry	-5204
▁seed	-5205
▁GL	-5206
▁functionality	-5207
Intent	-5208
▁creates	-5209
▁blocks	-5210
▁TAG	-5211
▁absolute	-5212
▁strict	-5213
WT	-5214
COM	-5215
selected	-5216
▁shard	-5217
▁Optional	-5218
imitive	-5219
▁successfully	-5220
▁WHERE	-5221
▁pipeline	-5222
▁assume	-5223
▁easier	-5224
▁wx	-5225
▁scripts	-5226
9,	-5227
std	-5228
FS	-5229
xis	-5230
ised	-5231
▁getUser	-5232
▁Let	-5233
olution	-5234
▁windows	-5235
▁42	-5236
▁depth	-5237
▁emp	-5238
Copy	-5239
▁Call	-5240
Transform	-5241
▁speed	-5242
images	-5243
▁Iter	-5244
ivid	-5245
JAX	-5246
▁findViewById	-5247
ClickListener	-5248
-12	-5249
xff	-5250
▁plan	-5251
▁inline	-5252
game	-5253
cii	-5254
train	-5255
▁getFile	-5256
▁fails	-5257
enario	-5258
85	-5259
ager	-5260
uce	-5261
▁Validation	-5262
scribe	-5263
▁Art	-5264
application	-5265
win	-5266
children	-5267
TIME	-5268
▁identifier	-5269
▁descriptor	-5270
ublish	-5271
▁cached	-5272
▁six	-5273
long	-5274
Domain	-5275
ventory	-5276
objects	-5277
▁reload	-5278
▁8'	-5279
lied	-5280
▁commun	-5281
Serializer	-5282
▁schedule	-5283
▁instruction	-5284
▁implements	-5285
uc	-5286
vant	-5287
channel	-5288
voke	-5289
IVE	-5290
ategories	-5291
▁:)	-5292
atio	-5293
jpg	-5294
draw	-5295
losed	-5296
▁cb	-5297
PointerException	-5298
press	-5299
IM	-5300
earDown	-5301
oz	-5302
▁prompt	-5303
WN	-5304
Counter	-5305
▁included	-5306
▁secret	-5307
▁useful	-5308
vor	-5309
each	-5310
course	-5311
▁servlet	-5312
Email	-5313
▁URI	-5314
'>	-5315
▁Cl	-5316
▁moment	-5317
========	-5318
Encoding	-5319
▁jj	-5320
metadata	-5321
FT	-5322
package	-5323
▁curr	-5324
▁LO	-5325
▁together	-5326
▁article	-5327
▁gra	-5328
▁launch	-5329
▁age	-5330
▁suffix	-5331
Events	-5332
Font	-5333
thers	-5334
▁worker	-5335
▁hass	-5336
▁hours	-5337
{{	-5338
alys	-5339
▁respons	-5340
adow	-5341
▁serialize	-5342
aff	-5343
tf	-5344
▁Expected	-5345
models	-5346
grid	-5347
Buf	-5348
Aggreg	-5349
ugg	-5350
▁drag	-5351
trl	-5352
ollow	-5353
Equals	-5354
▁bo	-5355
▁edge	-5356
▁matching	-5357
onymous	-5358
nother	-5359
Background	-5360
▁Bundle	-5361
▁leg	-5362
▁vs	-5363
entity	-5364
COL	-5365
▁popup	-5366
Rows	-5367
acon	-5368
▁terms	-5369
itter	-5370
▁choose	-5371
Right	-5372
2]	-5373
▁dummy	-5374
Network	-5375
▁Label	-5376
▁believe	-5377
LIC	-5378
atible	-5379
chn	-5380
▁finished	-5381
ios	-5382
etimes	-5383
▁correspond	-5384
Member	-5385
pred	-5386
full	-5387
ded	-5388
igin	-5389
CODE	-5390
pop	-5391
▁hook	-5392
orizont	-5393
▁states	-5394
ivalent	-5395
▁sense	-5396
UNT	-5397
▁chrome	-5398
4'	-5399
binary	-5400
iness	-5401
▁forms	-5402
ench	-5403
▁1024	-5404
Route	-5405
GB	-5406
WOR	-5407
▁paint	-5408
▁Match	-5409
arr	-5410
factory	-5411
▁hostname	-5412
romise	-5413
Login	-5414
description	-5415
rote	-5416
artifactId	-5417
ipeline	-5418
▁1"	-5419
jo	-5420
Partition	-5421
cert	-5422
transform	-5423
common	-5424
Remove	-5425
▁dumps	-5426
Stat	-5427
iece	-5428
:00:00	-5429
▁getH	-5430
localhost	-5431
tle	-5432
Program	-5433
render	-5434
▁members	-5435
Unknown	-5436
abs	-5437
dig	-5438
▁Net	-5439
alysis	-5440
LAG	-5441
recated	-5442
Zone	-5443
Converter	-5444
▁vals	-5445
▁4,	-5446
gen	-5447
▁maximum	-5448
▁transport	-5449
ught	-5450
▁sending	-5451
▁Rest	-5452
▁deleted	-5453
atis	-5454
▁Calendar	-5455
▁setValue	-5456
JE	-5457
ka	-5458
▁deser	-5459
pid	-5460
▁zeros	-5461
96	-5462
internal	-5463
Temp	-5464
▁Filter	-5465
▁sock	-5466
▁confirm	-5467
PO	-5468
nav	-5469
▁assertNot	-5470
▁DateTime	-5471
columns	-5472
▁Template	-5473
▁Should	-5474
incip	-5475
▁focus	-5476
9.	-5477
nail	-5478
▁efficient	-5479
▁2)	-5480
equals	-5481
Condition	-5482
datetime	-5483
dirs	-5484
VICE	-5485
▁Be	-5486
ynamic	-5487
seconds	-5488
Author	-5489
▁0)	-5490
gt	-5491
DateTime	-5492
anner	-5493
▁mapper	-5494
▁"1"	-5495
▁iteration	-5496
errors	-5497
▁who	-5498
though	-5499
▁statements	-5500
▁tearDown	-5501
almost	-5502
Proto	-5503
more	-5504
▁deep	-5505
▁UPDATE	-5506
▁Activity	-5507
▁Layout	-5508
umbnail	-5509
▁lineno	-5510
angular	-5511
eep	-5512
▁phone	-5513
▁browsers	-5514
Second	-5515
▁dtypes	-5516
▁assertAll	-5517
ELD	-5518
▁week	-5519
▁mis	-5520
▁segment	-5521
collection	-5522
▁NULL	-5523
▁react	-5524
▁Before	-5525
antity	-5526
▁World	-5527
ots	-5528
▁addAll	-5529
▁partial	-5530
▁weights	-5531
▁executor	-5532
▁tre	-5533
LETE	-5534
▁inherit	-5535
▁somew	-5536
_3	-5537
▁cross	-5538
ClassName	-5539
▁Pr	-5540
▁plain	-5541
tags	-5542
widget	-5543
▁monitor	-5544
Library	-5545
lap	-5546
groupId	-5547
▁getAttribute	-5548
Show	-5549
NET	-5550
▁Part	-5551
AA	-5552
adcast	-5553
▁thenReturn	-5554
▁disabled	-5555
fit	-5556
▁destroy	-5557
groups	-5558
PAR	-5559
Attempt	-5560
▁card	-5561
▁HashSet	-5562
▁Xml	-5563
Flow	-5564
▁detail	-5565
Dest	-5566
eval	-5567
Layer	-5568
▁bus	-5569
Columns	-5570
▁DO	-5571
▁browse	-5572
Exist	-5573
▁sources	-5574
▁80	-5575
ports	-5576
▁learning	-5577
ship	-5578
1234	-5579
▁others	-5580
▁Other	-5581
▁Dat	-5582
▁31	-5583
istic	-5584
▁Which	-5585
Category	-5586
googleapis	-5587
STANCE	-5588
props	-5589
Bound	-5590
▁Red	-5591
▁Row	-5592
roke	-5593
▁urllib	-5594
rf	-5595
▁sender	-5596
▁{"	-5597
▁deal	-5598
▁adapter	-5599
▁remaining	-5600
▁audio	-5601
EXT	-5602
Metrics	-5603
▁Below	-5604
fort	-5605
▁bra	-5606
▁optional	-5607
mm	-5608
▁literal	-5609
cf	-5610
FIX	-5611
jor	-5612
▁fname	-5613
pdated	-5614
▁kernel	-5615
▁decor	-5616
validate	-5617
▁loops	-5618
fx	-5619
Flag	-5620
▁Sort	-5621
▁yes	-5622
▁notification	-5623
lict	-5624
plotlib	-5625
soft	-5626
-4	-5627
Permission	-5628
▁endswith	-5629
▁demo	-5630
▁Supp	-5631
mount	-5632
▁transition	-5633
iment	-5634
▁seek	-5635
95	-5636
▁promise	-5637
▁Compar	-5638
▁Properties	-5639
▁Stack	-5640
▁mut	-5641
____	-5642
ropri	-5643
:4	-5644
▁matcher	-5645
▁wrote	-5646
▁necessary	-5647
▁learn	-5648
▁fileName	-5649
▁10000	-5650
▁Bytes	-5651
▁Make	-5652
▁fun	-5653
LED	-5654
▁stub	-5655
▁Channel	-5656
▁Cre	-5657
schema	-5658
look	-5659
▁history	-5660
nodes	-5661
Ali	-5662
ism	-5663
ience	-5664
▁country	-5665
▁rm	-5666
▁AJAX	-5667
rive	-5668
${	-5669
iffer	-5670
later	-5671
▁Virtual	-5672
raft	-5673
convert	-5674
.*	-5675
-10	-5676
Environment	-5677
otion	-5678
He	-5679
▁argv	-5680
▁Parameter	-5681
▁happening	-5682
▁Cluster	-5683
▁compareTo	-5684
▁dont	-5685
▁iprot	-5686
elta	-5687
ctx	-5688
andidate	-5689
Errors	-5690
▁percent	-5691
iding	-5692
Art	-5693
▁thanks	-5694
▁23	-5695
inished	-5696
▁{{	-5697
Desc	-5698
▁<!--	-5699
▁modal	-5700
atalog	-5701
Limit	-5702
EventListener	-5703
Dep	-5704
tip	-5705
uuid	-5706
▁Media	-5707
(1	-5708
▁tenant	-5709
▁sets	-5710
▁mer	-5711
pb	-5712
SA	-5713
Operator	-5714
flags	-5715
▁permission	-5716
▁getPath	-5717
▁black	-5718
Space	-5719
▁DEBUG	-5720
▁Another	-5721
▁onClick	-5722
▁capture	-5723
olve	-5724
▁serial	-5725
▁VER	-5726
▁Em	-5727
riteria	-5728
▁400	-5729
▁Convert	-5730
▁FA	-5731
▁clazz	-5732
users	-5733
▁Basic	-5734
apply	-5735
ournal	-5736
▁setP	-5737
▁updates	-5738
azy	-5739
matrix	-5740
▁setS	-5741
BO	-5742
▁cp	-5743
ierarch	-5744
▁AS	-5745
▁Because	-5746
▁timed	-5747
▁cop	-5748
ARY	-5749
/201	-5750
▁suggestions	-5751
JECT	-5752
esh	-5753
USER	-5754
▁}}	-5755
▁important	-5756
▁ends	-5757
rot	-5758
ah	-5759
Dat	-5760
Notification	-5761
▁defaults	-5762
price	-5763
▁authentication	-5764
record	-5765
▁thrown	-5766
▁Internal	-5767
▁duplicate	-5768
hidden	-5769
▁proc	-5770
▁metric	-5771
ipped	-5772
[0].	-5773
▁incorrect	-5774
Security	-5775
4"	-5776
allow	-5777
PC	-5778
upload	-5779
▁apps	-5780
▁Maven	-5781
peat	-5782
▁pdf	-5783
year	-5784
]]	-5785
▁wondering	-5786
▁building	-5787
▁dates	-5788
zer	-5789
▁$('.	-5790
latform	-5791
ycl	-5792
▁matter	-5793
▁parseInt	-5794
▁roll	-5795
Allow	-5796
Mult	-5797
▁logs	-5798
▁declare	-5799
▁haven	-5800
▁faster	-5801
▁shutdown	-5802
▁minutes	-5803
▁align	-5804
incipal	-5805
illa	-5806
unicode	-5807
alf	-5808
▁5,	-5809
Failed	-5810
▁outer	-5811
Consumer	-5812
-2	-5813
Same	-5814
.1.	-5815
▁declared	-5816
▁obvious	-5817
ynchronous	-5818
▁abstract	-5819
ACK	-5820
▁Problem	-5821
ctype	-5822
Before	-5823
ito	-5824
▁references	-5825
ale	-5826
▁GUI	-5827
▁supposed	-5828
tog	-5829
▁%}	-5830
security	-5831
ones	-5832
▁SH	-5833
▁metrics	-5834
orizontal	-5835
TimeMillis	-5836
▁further	-5837
Dao	-5838
▁dropdown	-5839
DATA	-5840
UTF	-5841
volume	-5842
Checker	-5843
Binary	-5844
98	-5845
▁getSel	-5846
words	-5847
Use	-5848
▁Firefox	-5849
LASS	-5850
ooth	-5851
./	-5852
▁tb	-5853
▁parsing	-5854
▁appropri	-5855
ital	-5856
02	-5857
ERROR	-5858
▁along	-5859
cheduler	-5860
▁Bas	-5861
anagement	-5862
▁credentials	-5863
▁solutions	-5864
chart	-5865
▁End	-5866
ToString	-5867
__(	-5868
▁bb	-5869
iki	-5870
debug	-5871
▁Unknown	-5872
Join	-5873
▁rate	-5874
stop	-5875
▁cou	-5876
▁checks	-5877
▁reply	-5878
▁stage	-5879
▁determine	-5880
▁front	-5881
▁nd	-5882
assert	-5883
▁der	-5884
▁Back	-5885
▁white	-5886
-3	-5887
planation	-5888
▁isSet	-5889
▁TR	-5890
Global	-5891
inite	-5892
ruptedException	-5893
acts	-5894
▁Frame	-5895
Batch	-5896
▁letter	-5897
▁terminal	-5898
▁obt	-5899
▁packet	-5900
▁cat	-5901
Information	-5902
▁nb	-5903
Comment	-5904
prop	-5905
▁Network	-5906
▁["	-5907
MPTY	-5908
alance	-5909
▁depending	-5910
multi	-5911
after	-5912
▁priority	-5913
insert	-5914
Sw	-5915
ylesh	-5916
."	-5917
▁1;	-5918
▁intern	-5919
▁impl	-5920
pa	-5921
font	-5922
▁summary	-5923
▁urls	-5924
▁tk	-5925
)?	-5926
▁completely	-5927
reference	-5928
parameters	-5929
eq	-5930
iginal	-5931
▁factor	-5932
▁PO	-5933
▁maven	-5934
category	-5935
▁Vis	-5936
▁depends	-5937
wards	-5938
▁pull	-5939
ands	-5940
Snapshot	-5941
ccept	-5942
▁webpage	-5943
▁Address	-5944
vs	-5945
▁longer	-5946
ulk	-5947
Simple	-5948
setup	-5949
uted	-5950
▁assignment	-5951
▁invok	-5952
MetaData	-5953
ClassLoader	-5954
serve	-5955
▁team	-5956
▁Author	-5957
Timestamp	-5958
▁1:	-5959
changed	-5960
▁unable	-5961
mar	-5962
sample	-5963
ygon	-5964
▁cost	-5965
▁VALUE	-5966
.1/	-5967
batch	-5968
▁Scan	-5969
▁SSL	-5970
exit	-5971
▁indic	-5972
▁projects	-5973
▁manage	-5974
▁RO	-5975
▁Settings	-5976
▁ul	-5977
QUEST	-5978
▁Expression	-5979
▁corresponding	-5980
EqualTo	-5981
▁iframe	-5982
imiter	-5983
▁distribution	-5984
ided	-5985
▁ss	-5986
scale	-5987
=1	-5988
Auto	-5989
servlet	-5990
▁5.	-5991
▁TO	-5992
rule	-5993
Rest	-5994
▁rb	-5995
Split	-5996
▁-1	-5997
enced	-5998
▁ByteArray	-5999
▁equivalent	-6000
cb	-6001
CS	-6002
dependency	-6003
ighb	-6004
▁picture	-6005
ral	-6006
Screen	-6007
▁watch	-6008
▁identity	-6009
▁StringBuffer	-6010
▁COL	-6011
attributes	-6012
▁executable	-6013
gu	-6014
fetch	-6015
▁codes	-6016
▁Socket	-6017
▁coordinates	-6018
▁immedi	-6019
▁Variable	-6020
ridge	-6021
▁calendar	-6022
▁Min	-6023
Suite	-6024
00\	-6025
Cert	-6026
▁Container	-6027
controller	-6028
Namespace	-6029
orary	-6030
Div	-6031
▁cover	-6032
abilities	-6033
▁giving	-6034
ArrayList	-6035
▁across	-6036
▁Select	-6037
▁manifest	-6038
▁99	-6039
▁populate	-6040
▁qs	-6041
gnite	-6042
▁"<	-6043
▁INFO	-6044
▁300	-6045
react	-6046
compl	-6047
aming	-6048
▁DataFrame	-6049
acebook	-6050
▁otherwise	-6051
Lower	-6052
Renderer	-6053
Rate	-6054
▁sparse	-6055
limit	-6056
Py	-6057
▁'1'	-6058
impl	-6059
▁Common	-6060
ohn	-6061
CONT	-6062
Accessor	-6063
▁tt	-6064
▁maint	-6065
▁known	-6066
atively	-6067
GL	-6068
IgnoreCase	-6069
▁power	-6070
Off	-6071
ued	-6072
NI	-6073
▁prints	-6074
fortun	-6075
ining	-6076
aconda	-6077
▁ready	-6078
regex	-6079
CC	-6080
▁likely	-6081
Pop	-6082
▁mobile	-6083
▁helper	-6084
▁od	-6085
ifications	-6086
eting	-6087
background	-6088
▁including	-6089
▁wrapped	-6090
download	-6091
folder	-6092
variable	-6093
cut	-6094
:1	-6095
▁solved	-6096
Single	-6097
▁Maybe	-6098
▁Prot	-6099
▁digits	-6100
UTH	-6101
▁AP	-6102
lying	-6103
▁|=	-6104
mat	-6105
▁<?	-6106
lask	-6107
stit	-6108
▁Basically	-6109
▁processor	-6110
▁conv	-6111
▁getInt	-6112
engine	-6113
Look	-6114
inate	-6115
▁encrypt	-6116
compile	-6117
▁unpack	-6118
▁Spec	-6119
ipient	-6120
Expr	-6121
▁restart	-6122
67	-6123
▁tested	-6124
▁glob	-6125
Bl	-6126
Focus	-6127
▁containsKey	-6128
▁JVM	-6129
UND	-6130
▁Are	-6131
resources	-6132
▁hour	-6133
cdn	-6134
▁negative	-6135
redicate	-6136
▁connected	-6137
ividual	-6138
Received	-6139
hook	-6140
▁executing	-6141
▁bitField	-6142
▁constants	-6143
▁clicking	-6144
▁Ever	-6145
ducer	-6146
▁Where	-6147
itespace	-6148
served	-6149
Depend	-6150
ws	-6151
Entries	-6152
"));	-6153
▁Rect	-6154
decode	-6155
features	-6156
ayers	-6157
comment	-6158
▁setProperty	-6159
entially	-6160
6/	-6161
▁soft	-6162
▁diag	-6163
▁USER	-6164
ulator	-6165
▁JSONObject	-6166
▁getBytes	-6167
ently	-6168
▁Security	-6169
Exists	-6170
NER	-6171
author	-6172
▁Lib	-6173
▁resolved	-6174
▁Menu	-6175
▁[1,	-6176
▁getNode	-6177
lt	-6178
lan	-6179
pute	-6180
Score	-6181
▁Files	-6182
ummy	-6183
="@	-6184
▁startsWith	-6185
▁goal	-6186
▁Yes	-6187
▁Hibernate	-6188
atisf	-6189
▁compil	-6190
▁mysql	-6191
hide	-6192
▁predict	-6193
▁pytest	-6194
logger	-6195
directory	-6196
Cursor	-6197
Begin	-6198
▁servers	-6199
SSION	-6200
History	-6201
inux	-6202
▁programming	-6203
Cancel	-6204
XT	-6205
Section	-6206
sgi	-6207
▁getT	-6208
normal	-6209
▁Location	-6210
second	-6211
proxy	-6212
FORM	-6213
0000000	-6214
▁assigned	-6215
checkbox	-6216
▁converted	-6217
haps	-6218
▁CH	-6219
anced	-6220
trace	-6221
▁eclipse	-6222
▁anchor	-6223
labels	-6224
▁stmt	-6225
▁'/	-6226
▁BigDecimal	-6227
paths	-6228
▁light	-6229
▁getLocal	-6230
scal	-6231
Contents	-6232
Formatter	-6233
LS	-6234
▁lst	-6235
▁trouble	-6236
▁PsiElement	-6237
▁Traceback	-6238
aves	-6239
▁setName	-6240
wrapper	-6241
move	-6242
beans	-6243
REATE	-6244
{"	-6245
fd	-6246
▁chars	-6247
maps	-6248
Stop	-6249
FileName	-6250
▁adjust	-6251
▁1'	-6252
ylesheet	-6253
▁hist	-6254
omcat	-6255
▁thrift	-6256
Random	-6257
▁getResource	-6258
Cred	-6259
requency	-6260
▁AR	-6261
▁obtain	-6262
▁TH	-6263
▁queries	-6264
1>	-6265
▁vars	-6266
500	-6267
ARN	-6268
▁rt	-6269
▁bounds	-6270
▁customer	-6271
Fix	-6272
▁Second	-6273
▁against	-6274
screen	-6275
▁Dist	-6276
dt	-6277
▁runner	-6278
pdir	-6279
contains	-6280
▁mess	-6281
Rad	-6282
actions	-6283
▁separator	-6284
Day	-6285
▁met	-6286
fortunately	-6287
▁sqrt	-6288
Listen	-6289
▁getField	-6290
Transport	-6291
▁appropriate	-6292
Wait	-6293
vals	-6294
▁poll	-6295
stats	-6296
▁blue	-6297
Full	-6298
Hello	-6299
exist	-6300
▁1.1	-6301
▁dimension	-6302
5"	-6303
▁cloud	-6304
orn	-6305
▁currency	-6306
▁22	-6307
▁They	-6308
▁sem	-6309
Flags	-6310
global	-6311
▁mp	-6312
▁Mac	-6313
modal	-6314
▁subnet	-6315
utf	-6316
▁Ap	-6317
Prop	-6318
DU	-6319
PU	-6320
.0.0.1	-6321
▁usually	-6322
crement	-6323
▁Delete	-6324
attrs	-6325
▁Observable	-6326
▁getAll	-6327
dr	-6328
▁parallel	-6329
Android	-6330
▁highlight	-6331
▁zoom	-6332
vc	-6333
▁StringUtils	-6334
apes	-6335
track	-6336
yy	-6337
Present	-6338
▁Reference	-6339
signed	-6340
▁dr	-6341
▁::	-6342
Edge	-6343
Plan	-6344
cedure	-6345
HashMap	-6346
▁piece	-6347
Agent	-6348
▁EMPTY	-6349
▁Something	-6350
▁colors	-6351
▁feel	-6352
messages	-6353
▁average	-6354
azon	-6355
▁Exchange	-6356
FIG	-6357
▁While	-6358
PS	-6359
develop	-6360
▁'0'	-6361
Extra	-6362
▁Route	-6363
▁("	-6364
84	-6365
Save	-6366
▁JPanel	-6367
ATOR	-6368
▁cm	-6369
▁{%	-6370
▁transfer	-6371
samples	-6372
▁More	-6373
▁recursive	-6374
▁Return	-6375
Shape	-6376
eme	-6377
bootstrap	-6378
▁Num	-6379
▁AT	-6380
exe	-6381
▁peer	-6382
▁practice	-6383
ving	-6384
Literal	-6385
orth	-6386
PORT	-6387
Direct	-6388
fa	-6389
74	-6390
hape	-6391
Groups	-6392
▁perfectly	-6393
▁crash	-6394
▁scenario	-6395
(?	-6396
▁targets	-6397
:"	-6398
▁MET	-6399
policy	-6400
▁holder	-6401
▁alternative	-6402
raction	-6403
rivile	-6404
▁Logger	-6405
▁stuck	-6406
covery	-6407
Raw	-6408
▁Account	-6409
avail	-6410
Year	-6411
strument	-6412
▁3.0	-6413
Objects	-6414
▁minimum	-6415
izing	-6416
▁overr	-6417
rr	-6418
▁CSV	-6419
ric	-6420
secs	-6421
▁trick	-6422
innerHTML	-6423
swer	-6424
▁Product	-6425
▁Arg	-6426
Remote	-6427
ByName	-6428
▁Dep	-6429
▁shift	-6430
▁Book	-6431
Br	-6432
▁devices	-6433
illi	-6434
Invalid	-6435
Register	-6436
Actions	-6437
LOCK	-6438
>();	-6439
▁repeat	-6440
ensitive	-6441
▁Copy	-6442
ersistence	-6443
▁blob	-6444
▁Void	-6445
▁getContext	-6446
../	-6447
5)	-6448
▁square	-6449
mult	-6450
▁Term	-6451
events	-6452
▁IDE	-6453
▁Level	-6454
posite	-6455
▁bot	-6456
Packet	-6457
ossible	-6458
9999	-6459
54	-6460
▁Remove	-6461
▁Mem	-6462
▁managed	-6463
Person	-6464
ored	-6465
▁handling	-6466
cur	-6467
Complete	-6468
▁couldn	-6469
'))	-6470
mapping	-6471
Dispatch	-6472
▁fmt	-6473
yper	-6474
▁HttpServlet	-6475
▁Ipv	-6476
ryption	-6477
overflow	-6478
"))	-6479
▁CONT	-6480
arb	-6481
ializable	-6482
▁restri	-6483
▁cli	-6484
Dig	-6485
▁creation	-6486
CL	-6487
▁Sk	-6488
▁relevant	-6489
▁charAt	-6490
▁REST	-6491
'])	-6492
▁techn	-6493
align	-6494
final	-6495
erred	-6496
Inner	-6497
▁permissions	-6498
LY	-6499
▁Meta	-6500
▁impro	-6501
▁Servlet	-6502
▁spaces	-6503
▁Pattern	-6504
QU	-6505
▁subclass	-6506
AVA	-6507
▁directive	-6508
▁followed	-6509
iven	-6510
▁requested	-6511
acle	-6512
Methods	-6513
(1,	-6514
▁completed	-6515
▁provides	-6516
▁resize	-6517
▁singleton	-6518
▁connections	-6519
once	-6520
▁Transaction	-6521
'].	-6522
Detail	-6523
▁TABLE	-6524
▁ws	-6525
omes	-6526
Owner	-6527
agraph	-6528
▁includes	-6529
▁Decimal	-6530
▁bt	-6531
▁tail	-6532
▁rev	-6533
uages	-6534
▁0.00	-6535
canvas	-6536
ASK	-6537
▁flask	-6538
Man	-6539
CI	-6540
▁pending	-6541
▁fc	-6542
dom	-6543
▁MIN	-6544
▁Conn	-6545
▁lif	-6546
▁plugins	-6547
▁purpose	-6548
▁explicitly	-6549
Visibility	-6550
▁Objects	-6551
▁ec	-6552
gl	-6553
▁basename	-6554
outing	-6555
▁handlers	-6556
▁timezone	-6557
▁retry	-6558
▁precision	-6559
desc	-6560
▁getItem	-6561
▁Def	-6562
Axis	-6563
Le	-6564
▁getTime	-6565
▁linked	-6566
dtype	-6567
UC	-6568
▁Boot	-6569
AST	-6570
pair	-6571
▁den	-6572
▁Has	-6573
04	-6574
00000000	-6575
dn	-6576
▁getColumn	-6577
Chart	-6578
▁concept	-6579
▁authentic	-6580
IF	-6581
Symbol	-6582
▁MySQL	-6583
help	-6584
abc	-6585
▁Sim	-6586
Visitor	-6587
lare	-6588
▁setattr	-6589
▁Async	-6590
SSAGE	-6591
Pol	-6592
▁concaten	-6593
▁serializer	-6594
▁ear	-6595
variables	-6596
▁Tuple	-6597
MIN	-6598
▁These	-6599
▁Each	-6600
Det	-6601
TEST	-6602
Required	-6603
real	-6604
ierarchy	-6605
▁toggle	-6606
69	-6607
▁ImmutableList	-6608
Word	-6609
▁getStatus	-6610
sun	-6611
▁dd	-6612
▁xx	-6613
▁Wr	-6614
▁1234	-6615
▁conditions	-6616
Timer	-6617
[:	-6618
▁Generic	-6619
▁Init	-6620
he	-6621
▁getE	-6622
ebook	-6623
role	-6624
▁visibility	-6625
▁lex	-6626
▁unless	-6627
▁Bad	-6628
wait	-6629
Cl	-6630
▁greater	-6631
▁Assertion	-6632
▁rename	-6633
▁Sign	-6634
▁HttpResponse	-6635
Paths	-6636
mean	-6637
href	-6638
▁Us	-6639
▁waiting	-6640
ogram	-6641
▁conc	-6642
▁Locale	-6643
oreign	-6644
ByteArray	-6645
▁sun	-6646
▁2:	-6647
▁prediction	-6648
▁Plugin	-6649
include	-6650
warning	-6651
▁fieldName	-6652
Tuple	-6653
▁Once	-6654
pletion	-6655
▁coll	-6656
Import	-6657
-02	-6658
▁whenever	-6659
ons	-6660
Sql	-6661
rd	-6662
Card	-6663
▁rendered	-6664
▁computer	-6665
atter	-6666
▁isValid	-6667
▁nice	-6668
▁getChild	-6669
▁prime	-6670
▁extensions	-6671
▁Perm	-6672
▁[[	-6673
Authentication	-6674
▁comparison	-6675
arshaller	-6676
uous	-6677
5678	-6678
High	-6679
▁png	-6680
▁camel	-6681
django	-6682
▁nav	-6683
▁live	-6684
OB	-6685
NOT	-6686
▁inspect	-6687
▁entrySet	-6688
but	-6689
Scale	-6690
Book	-6691
2.7/	-6692
onical	-6693
External	-6694
▁camera	-6695
Opt	-6696
URCE	-6697
storage	-6698
Contains	-6699
▁getContent	-6700
activ	-6701
tuple	-6702
encoding	-6703
etic	-6704
▁archive	-6705
▁Mark	-6706
▁unexpected	-6707
▁newInstance	-6708
▁regard	-6709
xFF	-6710
▁touch	-6711
▁situation	-6712
exists	-6713
ula	-6714
▁backup	-6715
▁Mat	-6716
fire	-6717
Mask	-6718
▁somewhere	-6719
bsolute	-6720
▁normalize	-6721
▁sus	-6722
▁Final	-6723
▁sin	-6724
ks	-6725
MIT	-6726
▁initialized	-6727
▁leave	-6728
diff	-6729
▁describe	-6730
5'	-6731
▁deg	-6732
▁SV	-6733
▁couple	-6734
▁baz	-6735
▁requirement	-6736
Print	-6737
LOW	-6738
assign	-6739
87	-6740
ulated	-6741
▁integers	-6742
complete	-6743
▁Acc	-6744
auto	-6745
Two	-6746
Month	-6747
Assign	-6748
▁selenium	-6749
7.0.0.1	-6750
▁city	-6751
bb	-6752
▁beginning	-6753
Idx	-6754
inf	-6755
▁sometimes	-6756
▁Inet	-6757
▁Schema	-6758
ially	-6759
prototype	-6760
Animation	-6761
▁Tr	-6762
report	-6763
▁'0	-6764
▁CONF	-6765
proto	-6766
,"	-6767
coming	-6768
Points	-6769
▁Pol	-6770
▁toArray	-6771
ALID	-6772
▁datas	-6773
clean	-6774
hello	-6775
▁SET	-6776
▁Swing	-6777
scroll	-6778
▁'<	-6779
uffle	-6780
▁manip	-6781
▁isEqualTo	-6782
mac	-6783
▁cells	-6784
ned	-6785
bean	-6786
invalid	-6787
▁PATH	-6788
sn	-6789
raises	-6790
MD	-6791
GI	-6792
bot	-6793
!!	-6794
Chain	-6795
▁US	-6796
▁"1	-6797
details	-6798
Preferences	-6799
Validator	-6800
▁atom	-6801
▁StringIO	-6802
▁Unicode	-6803
▁understanding	-6804
clo	-6805
elements	-6806
▁'1	-6807
Collect	-6808
▁TextView	-6809
▁setTimeout	-6810
▁"201	-6811
▁SER	-6812
▁organ	-6813
simple	-6814
▁seg	-6815
▁scheduler	-6816
RAY	-6817
▁shouldn	-6818
▁clicks	-6819
▁iterable	-6820
▁Operation	-6821
ATUS	-6822
...)	-6823
▁cols	-6824
▁cookies	-6825
hand	-6826
Constructor	-6827
opts	-6828
Real	-6829
clear	-6830
zero	-6831
▁ignored	-6832
▁bootstrap	-6833
▁removing	-6834
▁prototype	-6835
Tx	-6836
Commit	-6837
:/	-6838
AIN	-6839
pm	-6840
▁mind	-6841
dest	-6842
▁digest	-6843
▁Character	-6844
▁recogn	-6845
▁yourself	-6846
DTO	-6847
uples	-6848
ialect	-6849
.,	-6850
dp	-6851
agent	-6852
▁getElement	-6853
mployee	-6854
MBER	-6855
components	-6856
▁Remote	-6857
▁collections	-6858
quot	-6859
▁compiled	-6860
Sync	-6861
oub	-6862
▁constraint	-6863
Validation	-6864
▁getMax	-6865
▁criter	-6866
▁VM	-6867
>>	-6868
udit	-6869
▁reshape	-6870
Media	-6871
ledge	-6872
▁Constants	-6873
chan	-6874
▁pad	-6875
▁entities	-6876
▁ON	-6877
clusive	-6878
toggle	-6879
au	-6880
etype	-6881
▁Have	-6882
master	-6883
▁PDF	-6884
▁combine	-6885
▁realm	-6886
Bus	-6887
▁Apache	-6888
acing	-6889
2.0	-6890
Sk	-6891
nn	-6892
▁somehow	-6893
▁cos	-6894
▁Step	-6895
Vertex	-6896
iving	-6897
around	-6898
▁emit	-6899
▁thus	-6900
▁Bean	-6901
▁asynchronous	-6902
▁Bar	-6903
Such	-6904
inct	-6905
▁matplotlib	-6906
tests	-6907
repeat	-6908
▁PI	-6909
▁retval	-6910
▁units	-6911
▁Standard	-6912
▁setEnabled	-6913
▁annotations	-6914
▁green	-6915
Inv	-6916
▁certificate	-6917
▁assertNull	-6918
▁various	-6919
▁quotes	-6920
▁solid	-6921
It	-6922
done	-6923
ifiable	-6924
▁formats	-6925
BUT	-6926
▁Notification	-6927
▁reach	-6928
TestCase	-6929
icult	-6930
▁filtered	-6931
iases	-6932
uge	-6933
▁radius	-6934
▁interfaces	-6935
umes	-6936
▁heap	-6937
-03	-6938
Bits	-6939
▁sr	-6940
▁Range	-6941
Usage	-6942
Price	-6943
video	-6944
▁pairs	-6945
▁middle	-6946
Lat	-6947
Db	-6948
▁taking	-6949
▁Auto	-6950
▁online	-6951
▁testCase	-6952
Weight	-6953
▁Down	-6954
▁training	-6955
endor	-6956
▁measure	-6957
▁mist	-6958
effect	-6959
▁sym	-6960
present	-6961
▁UUID	-6962
ycler	-6963
crete	-6964
Home	-6965
uckets	-6966
▁coding	-6967
57	-6968
ORY	-6969
racle	-6970
▁Gr	-6971
Period	-6972
fc	-6973
▁Currently	-6974
LOG	-6975
▁timedelta	-6976
router	-6977
dfs	-6978
▁BigInteger	-6979
quote	-6980
▁ascii	-6981
▁intro	-6982
▁radio	-6983
uffix	-6984
Lines	-6985
based	-6986
More	-6987
▁AL	-6988
Classes	-6989
Tags	-6990
▁gc	-6991
▁aa	-6992
tmp	-6993
Segment	-6994
▁immediately	-6995
epar	-6996
sheet	-6997
MI	-6998
▁routing	-6999
256	-7000
▁getN	-7001
▁Of	-7002
▁((	-7003
READ	-7004
▁expire	-7005
▁classpath	-7006
▁fiddle	-7007
▁Mon	-7008
▁ur	-7009
▁looked	-7010
Border	-7011
rappe	-7012
izard	-7013
▁strategy	-7014
▁"0	-7015
▁linear	-7016
ADER	-7017
▁traceback	-7018
▁BufferedReader	-7019
▁Environment	-7020
:3	-7021
▁SC	-7022
5/	-7023
▁repeated	-7024
▁'201	-7025
Upload	-7026
10,	-7027
▁Instance	-7028
views	-7029
▁twice	-7030
TAG	-7031
GE	-7032
loor	-7033
related	-7034
"}	-7035
Contact	-7036
bum	-7037
▁rhs	-7038
▁Ok	-7039
▁pc	-7040
ja	-7041
El	-7042
Exit	-7043
▁Course	-7044
▁suggested	-7045
FX	-7046
---	-7047
▁explanation	-7048
▁overflow	-7049
▁Fake	-7050
▁frappe	-7051
▁setContent	-7052
orer	-7053
▁capacity	-7054
TRI	-7055
AY	-7056
ocom	-7057
▁respect	-7058
tick	-7059
▁formatter	-7060
('/	-7061
tools	-7062
▁FILE	-7063
ROUP	-7064
AMP	-7065
▁Don	-7066
▁threshold	-7067
emp	-7068
▁callable	-7069
▁Hel	-7070
Capacity	-7071
▁LE	-7072
hibernate	-7073
▁ge	-7074
▁four	-7075
cluded	-7076
Send	-7077
▁Ansible	-7078
▁templates	-7079
▁21	-7080
chain	-7081
RED	-7082
▁almost	-7083
▁today	-7084
▁development	-7085
ACT	-7086
▁asking	-7087
cuss	-7088
▁getV	-7089
Loop	-7090
cls	-7091
Props	-7092
▁pag	-7093
library	-7094
▁individual	-7095
▁searching	-7096
Factor	-7097
4)	-7098
▁getG	-7099
▁printing	-7100
▁bases	-7101
▁asset	-7102
correct	-7103
configuration	-7104
CONDS	-7105
icrosoft	-7106
LAY	-7107
iform	-7108
ATCH	-7109
else	-7110
PACE	-7111
▁TimeUnit	-7112
▁tax	-7113
Delay	-7114
Many	-7115
VC	-7116
▁xpath	-7117
ibling	-7118
eration	-7119
▁artifact	-7120
▁expressions	-7121
DEFAULT	-7122
▁Storage	-7123
▁logged	-7124
▁ssh	-7125
▁soup	-7126
▁behaviour	-7127
elcome	-7128
ibly	-7129
-11	-7130
seq	-7131
▁configured	-7132
▁consist	-7133
Listeners	-7134
▁ImportError	-7135
esting	-7136
▁ran	-7137
Shard	-7138
▁Qgs	-7139
ceptor	-7140
▁came	-7141
▁away	-7142
]);	-7143
Abstract	-7144
▁closing	-7145
Assert	-7146
-04	-7147
ssl	-7148
Signature	-7149
Eval	-7150
▁Sample	-7151
DEX	-7152
jdbc	-7153
route	-7154
▁slot	-7155
Qual	-7156
ieved	-7157
see	-7158
ba	-7159
pdf	-7160
▁IS	-7161
▁cent	-7162
mer	-7163
Play	-7164
▁samples	-7165
▁Sql	-7166
▁applications	-7167
234	-7168
Chunk	-7169
▁deprecated	-7170
answ	-7171
commit	-7172
ircle	-7173
cker	-7174
public	-7175
▁hover	-7176
▁slug	-7177
▁($	-7178
conditions	-7179
58	-7180
exc	-7181
available	-7182
alan	-7183
▁updating	-7184
Gui	-7185
▁404	-7186
lu	-7187
iles	-7188
LD	-7189
+"	-7190
Attach	-7191
Fail	-7192
▁oauth	-7193
rypto	-7194
LowerCase	-7195
untu	-7196
Env	-7197
Services	-7198
▁room	-7199
asp	-7200
lause	-7201
▁angle	-7202
▁occurs	-7203
▁Find	-7204
▁TIME	-7205
EB	-7206
▁places	-7207
'}	-7208
"),	-7209
▁AN	-7210
ipy	-7211
▁keySet	-7212
▁Argument	-7213
▁INSTANCE	-7214
▁anyway	-7215
▁Queue	-7216
▁mm	-7217
▁Scanner	-7218
▁rgb	-7219
▁bs	-7220
Enter	-7221
stat	-7222
Static	-7223
Tasks	-7224
require	-7225
??	-7226
/.	-7227
Math	-7228
▁adds	-7229
▁dns	-7230
▁tableName	-7231
▁rank	-7232
▁setC	-7233
▁pickle	-7234
▁layers	-7235
END	-7236
wt	-7237
fail	-7238
▁AssertionError	-7239
▁Tensor	-7240
complish	-7241
▁JDK	-7242
before	-7243
="/	-7244
▁matched	-7245
▁Game	-7246
when	-7247
▁processed	-7248
panel	-7249
▁getX	-7250
invoke	-7251
▁becomes	-7252
▁sequ	-7253
andlers	-7254
▁AB	-7255
month	-7256
imap	-7257
SSL	-7258
▁declaration	-7259
▁requirements	-7260
?>	-7261
▁ct	-7262
gy	-7263
DBC	-7264
ivery	-7265
ocity	-7266
▁90	-7267
▁conversion	-7268
Duration	-7269
▁Iterable	-7270
rations	-7271
▁board	-7272
MODE	-7273
▁tabs	-7274
)]	-7275
drop	-7276
reset	-7277
ONG	-7278
Rol	-7279
lookup	-7280
▁stock	-7281
itional	-7282
▁LOGGER	-7283
▁BY	-7284
▁sheet	-7285
INFO	-7286
▁Syntax	-7287
▁Linux	-7288
Submit	-7289
▁Cons	-7290
▁fixture	-7291
loyment	-7292
Constraint	-7293
RENT	-7294
▁become	-7295
ashboard	-7296
▁aren	-7297
sequ	-7298
▁causing	-7299
KE	-7300
▁accomplish	-7301
▁restore	-7302
notations	-7303
▁major	-7304
▁cd	-7305
▁SDK	-7306
_4	-7307
Arguments	-7308
Pass	-7309
▁sto	-7310
Marker	-7311
MT	-7312
Drawable	-7313
▁Flask	-7314
▁setdefault	-7315
hip	-7316
▁PRE	-7317
olved	-7318
ners	-7319
enames	-7320
3:	-7321
rocess	-7322
▁getParameter	-7323
▁processes	-7324
VERSION	-7325
▁hosts	-7326
▁friend	-7327
▁applied	-7328
sq	-7329
pn	-7330
▁tile	-7331
paces	-7332
▁RuntimeError	-7333
▁aggregate	-7334
Comparator	-7335
required	-7336
ampl	-7337
▁associated	-7338
▁Child	-7339
flag	-7340
maven	-7341
Bind	-7342
Used	-7343
loss	-7344
.$	-7345
.0,	-7346
▁fully	-7347
Modified	-7348
Matcher	-7349
▁waitFor	-7350
Place	-7351
Func	-7352
WORD	-7353
▁Like	-7354
▁Question	-7355
Depth	-7356
Html	-7357
eh	-7358
▁verb	-7359
Connector	-7360
▁mid	-7361
▁imported	-7362
Constraints	-7363
Lookup	-7364
ipping	-7365
RY	-7366
▁trust	-7367
Available	-7368
-05	-7369
▁Atomic	-7370
▁Bitmap	-7371
▁github	-7372
▁OF	-7373
enchmark	-7374
▁?>	-7375
8'	-7376
sequence	-7377
Writable	-7378
▁getLast	-7379
▁Found	-7380
▁moving	-7381
ses	-7382
hes	-7383
you	-7384
CHAR	-7385
elem	-7386
▁production	-7387
▁OutputStream	-7388
Kind	-7389
▁revision	-7390
enum	-7391
OO	-7392
▁positive	-7393
byte	-7394
▁2000	-7395
▁listeners	-7396
acc	-7397
Series	-7398
▁ansible	-7399
▁Api	-7400
▁raises	-7401
player	-7402
▁IM	-7403
Ip	-7404
▁mv	-7405
icles	-7406
▁Dialog	-7407
▁rpc	-7408
Delegate	-7409
aemon	-7410
two	-7411
cceed	-7412
▁chat	-7413
▁visitor	-7414
▁evt	-7415
timestamp	-7416
Summary	-7417
▁anim	-7418
posed	-7419
inity	-7420
Other	-7421
__.	-7422
prep	-7423
▁flavor	-7424
▁Host	-7425
▁thinking	-7426
rase	-7427
media	-7428
▁Stop	-7429
▁yaml	-7430
▁[{	-7431
▁advice	-7432
▁adapt	-7433
▁difficult	-7434
▁invoice	-7435
▁36	-7436
contents	-7437
awt	-7438
Encoder	-7439
car	-7440
DataSource	-7441
sys	-7442
▁fold	-7443
FIELD	-7444
Mouse	-7445
▁assuming	-7446
links	-7447
▁kill	-7448
▁suggestion	-7449
▁JQuery	-7450
afka	-7451
▁clip	-7452
INF	-7453
▁ES	-7454
Move	-7455
Exchange	-7456
frames	-7457
▁256	-7458
activity	-7459
▁meaning	-7460
ha	-7461
▁opened	-7462
▁Ajax	-7463
▁Matrix	-7464
97	-7465
Worker	-7466
reh	-7467
lambda	-7468
▁clf	-7469
▁cx	-7470
enabled	-7471
eometry	-7472
▁compress	-7473
Insert	-7474
▁123	-7475
aper	-7476
▁therefore	-7477
▁domainObject	-7478
lyph	-7479
inator	-7480
chase	-7481
cap	-7482
▁interpreter	-7483
▁saying	-7484
COUNT	-7485
NU	-7486
ication	-7487
▁Up	-7488
▁flex	-7489
ease	-7490
▁cleanup	-7491
yped	-7492
▁letters	-7493
▁wish	-7494
parts	-7495
▁10,	-7496
▁(!	-7497
▁ls	-7498
▁Debug	-7499
▁fe	-7500
Final	-7501
tt	-7502
Amount	-7503
aching	-7504
bc	-7505
▁Mult	-7506
▁family	-7507
term	-7508
▁bu	-7509
mouse	-7510
Uuid	-7511
▁Global	-7512
▁sha	-7513
▁egg	-7514
TypeId	-7515
▁rotate	-7516
▁transl	-7517
▁vertical	-7518
▁greatly	-7519
RC	-7520
▁aff	-7521
avigation	-7522
oice	-7523
spection	-7524
World	-7525
▁poly	-7526
▁circle	-7527
▁upon	-7528
gre	-7529
▁connector	-7530
▁Ignite	-7531
▁helpful	-7532
clou	-7533
allen	-7534
Language	-7535
gers	-7536
So	-7537
ackson	-7538
Bitmap	-7539
MQ	-7540
▁Right	-7541
rees	-7542
iced	-7543
▁HE	-7544
lah	-7545
▁Article	-7546
ovy	-7547
aker	-7548
▁ptr	-7549
▁MS	-7550
▁mix	-7551
Character	-7552
writer	-7553
Diff	-7554
SERT	-7555
Dto	-7556
MM	-7557
▁geo	-7558
▁attached	-7559
▁Top	-7560
Tracker	-7561
509	-7562
cpu	-7563
▁getFirst	-7564
Ptr	-7565
ooser	-7566
▁{0	-7567
Refresh	-7568
▁posted	-7569
▁material	-7570
▁pt	-7571
gi	-7572
your	-7573
extract	-7574
HTTP	-7575
▁hint	-7576
:10	-7577
▁journal	-7578
NODE	-7579
▁produce	-7580
▁markup	-7581
▁opening	-7582
VENT	-7583
▁Pair	-7584
▁numeric	-7585
rev	-7586
aped	-7587
▁numberOf	-7588
▁displays	-7589
(1)	-7590
▁JAX	-7591
▁Annotation	-7592
▁bg	-7593
rest	-7594
native	-7595
▁pa	-7596
▁userId	-7597
reduce	-7598
▁replic	-7599
urface	-7600
▁EN	-7601
console	-7602
▁Display	-7603
Monitor	-7604
glish	-7605
picker	-7606
Acc	-7607
rect	-7608
sest	-7609
Producer	-7610
amma	-7611
▁posts	-7612
hi	-7613
▁pygame	-7614
cookie	-7615
▁entered	-7616
▁threading	-7617
loading	-7618
Connect	-7619
roovy	-7620
force	-7621
▁thumbnail	-7622
▁beans	-7623
▁Depend	-7624
▁coming	-7625
▁getNext	-7626
backend	-7627
▁languages	-7628
▁ant	-7629
▁counts	-7630
▁Cloud	-7631
▁frames	-7632
▁maps	-7633
▁printed	-7634
▁scra	-7635
etween	-7636
▁often	-7637
4/	-7638
▁esc	-7639
:'	-7640
▁Enter	-7641
ooter	-7642
Filename	-7643
▁AC	-7644
▁his	-7645
▁reject	-7646
▁Promise	-7647
▁pixels	-7648
iet	-7649
▁PY	-7650
▁Player	-7651
▁instructions	-7652
▁buff	-7653
Combo	-7654
▁dc	-7655
▁categories	-7656
▁compreh	-7657
▁myself	-7658
awn	-7659
▁cant	-7660
arant	-7661
▁Click	-7662
▁xy	-7663
.__	-7664
fe	-7665
▁tp	-7666
iol	-7667
Help	-7668
forEach	-7669
rece	-7670
▁tv	-7671
Upper	-7672
▁miss	-7673
Gr	-7674
('.	-7675
▁indexes	-7676
▁responses	-7677
Setting	-7678
TED	-7679
ysical	-7680
▁VERSION	-7681
▁encounter	-7682
▁clients	-7683
oost	-7684
▁Execution	-7685
▁Sm	-7686
_1_	-7687
▁Callback	-7688
▁ME	-7689
▁arange	-7690
▁appreciate	-7691
▁hop	-7692
▁Short	-7693
Receiver	-7694
criptors	-7695
Gen	-7696
▁candidate	-7697
▁$(".	-7698
codes	-7699
STRING	-7700
▁dx	-7701
00,	-7702
autif	-7703
ivers	-7704
▁reads	-7705
caught	-7706
▁testGet	-7707
▁beta	-7708
▁secure	-7709
▁Header	-7710
Inject	-7711
▁Unexpected	-7712
▁accur	-7713
▁Port	-7714
▁rendering	-7715
Bro	-7716
extension	-7717
Has	-7718
▁getSh	-7719
det	-7720
eak	-7721
reader	-7722
("/	-7723
03	-7724
▁contrib	-7725
▁calc	-7726
perm	-7727
browser	-7728
▁Even	-7729
va	-7730
▁Git	-7731
▁Mockito	-7732
▁aws	-7733
▁Utils	-7734
direct	-7735
Constant	-7736
▁rid	-7737
▁STRING	-7738
▁attrib	-7739
Closed	-7740
▁PA	-7741
▁Store	-7742
chemy	-7743
atisfied	-7744
BY	-7745
▁finding	-7746
▁replaced	-7747
▁klass	-7748
double	-7749
EC	-7750
▁getHeight	-7751
▁8"	-7752
▁registered	-7753
▁queryset	-7754
FLAG	-7755
Net	-7756
erc	-7757
Initialized	-7758
▁Ver	-7759
▁subscription	-7760
▁declar	-7761
▁formatted	-7762
platform	-7763
▁eg	-7764
▁Tomcat	-7765
▁getWidth	-7766
slice	-7767
▁END	-7768
att	-7769
radio	-7770
▁IOError	-7771
▁Only	-7772
▁Package	-7773
ales	-7774
eam	-7775
urls	-7776
▁addresses	-7777
▁Rectangle	-7778
chemas	-7779
▁Max	-7780
▁6,	-7781
Redirect	-7782
▁employee	-7783
▁Mapp	-7784
▁Mongo	-7785
▁Tool	-7786
▁converter	-7787
uby	-7788
▁[0	-7789
hr	-7790
▁Demo	-7791
▁0.2	-7792
+1	-7793
wall	-7794
UMN	-7795
Arr	-7796
▁phase	-7797
?)	-7798
eces	-7799
iling	-7800
Execute	-7801
▁Editor	-7802
ftime	-7803
▁sentence	-7804
single	-7805
Sample	-7806
▁bitmap	-7807
Aut	-7808
▁deployment	-7809
high	-7810
ational	-7811
▁axes	-7812
ado	-7813
perature	-7814
▁cn	-7815
▁Empty	-7816
rules	-7817
▁half	-7818
ozilla	-7819
▁VI	-7820
ii	-7821
▁blog	-7822
▁Login	-7823
eets	-7824
ADD	-7825
▁28	-7826
ildcard	-7827
dispatch	-7828
MAX	-7829
▁chunks	-7830
▁Pass	-7831
calls	-7832
Bag	-7833
123	-7834
▁brack	-7835
=0;	-7836
▁Target	-7837
ssue	-7838
▁6.	-7839
database	-7840
▁26	-7841
▁getObject	-7842
▁Pandas	-7843
DT	-7844
operator	-7845
nb	-7846
▁CREATE	-7847
09	-7848
IGHT	-7849
▁],	-7850
▁Parser	-7851
dx	-7852
▁described	-7853
zen	-7854
Observer	-7855
▁Core	-7856
▁1.5	-7857
▁ACTION	-7858
When	-7859
autiful	-7860
▁intValue	-7861
▁ALL	-7862
▁JFrame	-7863
▁documents	-7864
voice	-7865
▁soon	-7866
Tick	-7867
▁vertex	-7868
bad	-7869
08	-7870
redirect	-7871
icator	-7872
▁pot	-7873
▁lazy	-7874
▁nn	-7875
42	-7876
▁luck	-7877
that	-7878
Touch	-7879
▁Ind	-7880
▁comma	-7881
▁ordered	-7882
shake	-7883
▁implementing	-7884
▁slider	-7885
▁Active	-7886
imits	-7887
▁Put	-7888
:30	-7889
TextField	-7890
urred	-7891
▁Control	-7892
▁renderer	-7893
▁Record	-7894
▁setOn	-7895
Throw	-7896
▁NoSuch	-7897
▁wouldn	-7898
▁mount	-7899
▁astype	-7900
itted	-7901
services	-7902
▁aware	-7903
####	-7904
▁floating	-7905
sect	-7906
▁readable	-7907
cloudf	-7908
▁asked	-7909
▁LinkedList	-7910
elocity	-7911
▁taken	-7912
Created	-7913
rew	-7914
▁Toast	-7915
Running	-7916
▁texture	-7917
▁Well	-7918
▁putting	-7919
▁Struct	-7920
▁wall	-7921
▁imag	-7922
▁dirs	-7923
▁Protocol	-7924
IST	-7925
▁downloaded	-7926
▁registration	-7927
▁subscri	-7928
uplicate	-7929
laps	-7930
ova	-7931
DOM	-7932
Any	-7933
▁swap	-7934
Calendar	-7935
:2	-7936
▁tom	-7937
getitem	-7938
▁Doc	-7939
Analy	-7940
bottom	-7941
Clean	-7942
uzz	-7943
▁causes	-7944
seud	-7945
=""	-7946
▁delimiter	-7947
▁attachment	-7948
person	-7949
many	-7950
▁confused	-7951
▁minute	-7952
▁trunc	-7953
BE	-7954
▁getState	-7955
inputs	-7956
▁offer	-7957
alt	-7958
Compl	-7959
▁checker	-7960
▁getProject	-7961
found	-7962
▁pure	-7963
Checked	-7964
▁nod	-7965
▁receiver	-7966
Feed	-7967
▁ctypes	-7968
kt	-7969
▁dy	-7970
-5	-7971
without	-7972
Blocks	-7973
tpl	-7974
▁checkNotNull	-7975
Game	-7976
LIST	-7977
INTER	-7978
▁edges	-7979
▁$_	-7980
▁saving	-7981
BLE	-7982
TagName	-7983
▁payment	-7984
▁stdin	-7985
cest	-7986
▁acquire	-7987
▁locations	-7988
▁successful	-7989
▁OSError	-7990
Arch	-7991
▁visual	-7992
licated	-7993
cons	-7994
▁docker	-7995
akes	-7996
asy	-7997
▁OP	-7998
Warnings	-7999
-06	-8000
▁resulting	-8001
Supp	-8002
lapse	-8003
▁ValidationError	-8004
sBy	-8005
Utilities	-8006
▁EC	-8007
Fac	-8008
Stage	-8009
▁Altern	-8010
▁Gu	-8011
created	-8012
▁micro	-8013
Comparison	-8014
"+	-8015
▁translation	-8016
Finished	-8017
▁dispose	-8018
DN	-8019
▁absent	-8020
▁upgrade	-8021
▁sound	-8022
amount	-8023
▁Border	-8024
EP	-8025
ader	-8026
▁Controller	-8027
interface	-8028
▁Repository	-8029
Done	-8030
▁Timestamp	-8031
▁converting	-8032
UST	-8033
STATE	-8034
▁hi	-8035
▁"0"	-8036
Expected	-8037
cludes	-8038
elli	-8039
atar	-8040
▁criteria	-8041
cred	-8042
cloudflare	-8043
▁allocate	-8044
asc	-8045
repared	-8046
▁XContent	-8047
=[	-8048
stylesheet	-8049
irth	-8050
0)	-8051
▁tries	-8052
produ	-8053
▁Program	-8054
cdnjs	-8055
▁displaying	-8056
▁scene	-8057
apture	-8058
arshal	-8059
▁orient	-8060
ongs	-8061
indices	-8062
]+	-8063
▁Draw	-8064
▁defaultValue	-8065
uman	-8066
▁isDebug	-8067
catch	-8068
APP	-8069
▁setAttribute	-8070
alert	-8071
-07	-8072
Paint	-8073
▁conflict	-8074
▁sudo	-8075
▁10.	-8076
ancy	-8077
▁digit	-8078
▁getApplication	-8079
buntu	-8080
▁copied	-8081
osite	-8082
Performed	-8083
▁compat	-8084
alias	-8085
▁getDis	-8086
▁pm	-8087
▁increase	-8088
▁ipv	-8089
2>	-8090
▁Device	-8091
Master	-8092
▁channels	-8093
▁party	-8094
UUID	-8095
▁typed	-8096
▁ResultSet	-8097
999	-8098
Separ	-8099
▁Unfortunately	-8100
▁Future	-8101
Fr	-8102
▁abspath	-8103
dialog	-8104
▁dl	-8105
Compat	-8106
forward	-8107
olders	-8108
▁Rule	-8109
▁behind	-8110
compare	-8111
1',	-8112
▁WARN	-8113
▁review	-8114
▁deserialize	-8115
watch	-8116
▁serialized	-8117
selector	-8118
ertools	-8119
SULT	-8120
aight	-8121
▁flatten	-8122
▁128	-8123
▁anonymous	-8124
▁2018	-8125
LENG	-8126
3]	-8127
▁7,	-8128
usage	-8129
▁hadoop	-8130
ocab	-8131
▁Memory	-8132
cols	-8133
▁[0,	-8134
▁Next	-8135
▁Cell	-8136
Scan	-8137
Ctrl	-8138
Gu	-8139
>,	-8140
CAL	-8141
▁arrow	-8142
interval	-8143
ategor	-8144
▁smaller	-8145
Components	-8146
▁DELETE	-8147
TA	-8148
TextView	-8149
feed	-8150
DAO	-8151
Than	-8152
mysql	-8153
▁catalog	-8154
▁Linear	-8155
adoc	-8156
05	-8157
▁getSource	-8158
▁100%;	-8159
vector	-8160
afari	-8161
▁getStart	-8162
short	-8163
▁roles	-8164
▁gradient	-8165
ference	-8166
ributed	-8167
Center	-8168
learn	-8169
▁Go	-8170
unique	-8171
language	-8172
ai	-8173
ili	-8174
▁producer	-8175
FE	-8176
▁storing	-8177
AsString	-8178
▁management	-8179
▁imports	-8180
▁avail	-8181
▁Font	-8182
bases	-8183
▁years	-8184
▁2019	-8185
06	-8186
▁experience	-8187
▁Dimension	-8188
▁temporary	-8189
▁4.0	-8190
▁styles	-8191
UCCESS	-8192
▁Show	-8193
▁triggered	-8194
▁',	-8195
▁cond	-8196
7)	-8197
▁expla	-8198
▁attempting	-8199
▁VirtualFile	-8200
cloud	-8201
provider	-8202
▁alter	-8203
Popup	-8204
▁excel	-8205
▁Graphics	-8206
printStackTrace	-8207
▁Native	-8208
Labels	-8209
43	-8210
Measure	-8211
▁svg	-8212
▁workaround	-8213
CATION	-8214
Mac	-8215
ograph	-8216
▁combin	-8217
▁Tab	-8218
permission	-8219
▁straight	-8220
jsp	-8221
▁dimensions	-8222
▁ff	-8223
VALID	-8224
▁Running	-8225
uts	-8226
-6	-8227
▁sd	-8228
▁100%	-8229
101	-8230
DataFrame	-8231
▁Over	-8232
ANT	-8233
▁ans	-8234
▁getRoot	-8235
▁getSelected	-8236
▁theme	-8237
ecycle	-8238
Addr	-8239
▁Me	-8240
▁Adding	-8241
Video	-8242
▁validator	-8243
▁",	-8244
▁Camel	-8245
cursor	-8246
▁newBuilder	-8247
osen	-8248
▁Parent	-8249
Site	-8250
OutOf	-8251
atable	-8252
▁analysis	-8253
HttpRequest	-8254
PREFIX	-8255
▁High	-8256
▁recover	-8257
▁Finally	-8258
▁8,	-8259
versed	-8260
▁relationship	-8261
idence	-8262
▁walk	-8263
▁referenced	-8264
▁Packet	-8265
▁APP	-8266
▁2017	-8267
▁notNull	-8268
Instruction	-8269
▁activate	-8270
▁newValue	-8271
ChangeListener	-8272
itles	-8273
▁ctxt	-8274
▁debugging	-8275
Bucket	-8276
▁FileSystem	-8277
peg	-8278
▁skb	-8279
▁replacement	-8280
▁dp	-8281
TEXT	-8282
LENGTH	-8283
▁constraints	-8284
Chars	-8285
▁divs	-8286
▁debugger	-8287
▁IndexError	-8288
▁JAVA	-8289
▁maintain	-8290
Ms	-8291
Algorithm	-8292
▁psi	-8293
▁Single	-8294
ensors	-8295
phab	-8296
▁Install	-8297
▁routes	-8298
▁logical	-8299
▁clock	-8300
▁ic	-8301
gres	-8302
▁representation	-8303
▁notice	-8304
▁keywords	-8305
Identity	-8306
ARD	-8307
pick	-8308
▁pom	-8309
▁fa	-8310
lave	-8311
▁linux	-8312
Fixed	-8313
Syntax	-8314
▁lt	-8315
▁PAR	-8316
▁jobs	-8317
addEventListener	-8318
Decoder	-8319
CLASS	-8320
series	-8321
▁mechan	-8322
▁Condition	-8323
▁face	-8324
▁tc	-8325
▁pressed	-8326
Fiddle	-8327
Unless	-8328
▁doctype	-8329
tasks	-8330
Cmd	-8331
▁guid	-8332
hover	-8333
phone	-8334
▁embedded	-8335
icial	-8336
▁Mouse	-8337
editor	-8338
blob	-8339
▁occur	-8340
note	-8341
▁WS	-8342
ees	-8343
oog	-8344
secre	-8345
▁guarant	-8346
SOURCE	-8347
▁keyboard	-8348
reet	-8349
asing	-8350
▁slide	-8351
▁decorator	-8352
entries	-8353
▁patterns	-8354
/2.1	-8355
orph	-8356
iterator	-8357
-1.	-8358
ITH	-8359
▁Unit	-8360
▁fl	-8361
Jar	-8362
Grad	-8363
▁overwrite	-8364
ptr	-8365
-08	-8366
▁plus	-8367
irror	-8368
ousel	-8369
▁lhs	-8370
expr	-8371
▁scanner	-8372
dot	-8373
Note	-8374
detail	-8375
▁invocation	-8376
▁interrupt	-8377
▁endObject	-8378
shift	-8379
DL	-8380
extra	-8381
▁although	-8382
'];	-8383
usic	-8384
8)	-8385
You	-8386
▁getSub	-8387
▁Category	-8388
▁Tri	-8389
▁Word	-8390
▁avg	-8391
▁Man	-8392
▁Binary	-8393
▁ess	-8394
▁7.	-8395
▁accessing	-8396
▁larger	-8397
po	-8398
Statistics	-8399
Launch	-8400
xs	-8401
dims	-8402
bsolutePath	-8403
▁consume	-8404
▁Therefore	-8405
▁nr	-8406
▁experiment	-8407
▁3:	-8408
IOException	-8409
▁Authentication	-8410
gan	-8411
▁eps	-8412
▁reasons	-8413
▁Op	-8414
▁keeps	-8415
▁cnt	-8416
Records	-8417
▁STATE	-8418
▁3)	-8419
iration	-8420
▁developer	-8421
▁symbols	-8422
Instances	-8423
▁getter	-8424
lared	-8425
VAL	-8426
▁0"	-8427
Scheduler	-8428
tw	-8429
▁'.	-8430
▁2"	-8431
Break	-8432
udy	-8433
▁ports	-8434
▁sf	-8435
avadoc	-8436
▁mapped	-8437
payload	-8438
Artifact	-8439
Qt	-8440
allery	-8441
▁Html	-8442
Cast	-8443
▁fair	-8444
Side	-8445
urable	-8446
Unique	-8447
▁pipe	-8448
▁dead	-8449
essment	-8450
▁getY	-8451
▁codecs	-8452
▁tmpdir	-8453
▁ln	-8454
▁sorting	-8455
▁Last	-8456
IFI	-8457
▁msgs	-8458
▁Engine	-8459
atory	-8460
▁dro	-8461
▁UTC	-8462
Err	-8463
▁*=	-8464
▁sensor	-8465
Secret	-8466
progress	-8467
anaged	-8468
USE	-8469
▁weird	-8470
▁Av	-8471
▁setId	-8472
▁cart	-8473
▁ie	-8474
▁frag	-8475
▁ld	-8476
mx	-8477
pages	-8478
▁OUT	-8479
▁Oracle	-8480
Without	-8481
▁assertQuery	-8482
SPACE	-8483
▁cipher	-8484
▁Flow	-8485
WR	-8486
▁installation	-8487
▁magic	-8488
ecode	-8489
▁startObject	-8490
▁caller	-8491
havi	-8492
contrib	-8493
▁slight	-8494
DateFormat	-8495
ensity	-8496
▁iso	-8497
▁SI	-8498
Docs	-8499
Dev	-8500
▁talk	-8501
▁nx	-8502
pure	-8503
Foo	-8504
▁Admin	-8505
>(	-8506
▁discuss	-8507
▁Uri	-8508
▁Format	-8509
Threshold	-8510
▁parents	-8511
initely	-8512
SELECT	-8513
Volume	-8514
▁He	-8515
▁29	-8516
LATE	-8517
ding	-8518
▁27	-8519
arbage	-8520
▁identify	-8521
▁testdir	-8522
loaded	-8523
▁Fragment	-8524
PERTY	-8525
▁drawable	-8526
▁PK	-8527
ipart	-8528
▁products	-8529
▁hibernate	-8530
▁isDebugEnabled	-8531
▁2.7	-8532
PEN	-8533
▁freq	-8534
Basic	-8535
▁anywhere	-8536
▁Jquery	-8537
margin	-8538
async	-8539
Tokens	-8540
arily	-8541
Predicate	-8542
REQUEST	-8543
▁vec	-8544
plorer	-8545
acters	-8546
)"	-8547
ogs	-8548
127.0.0.1	-8549
▁cycle	-8550
▁navigation	-8551
▁noticed	-8552
strings	-8553
servation	-8554
▁Follow	-8555
▁Ide	-8556
▁Selenium	-8557
radius	-8558
▁yy	-8559
00000	-8560
▁near	-8561
▁filled	-8562
generator	-8563
disabled	-8564
answer	-8565
usters	-8566
2',	-8567
avor	-8568
▁assertAllEqual	-8569
▁AD	-8570
▁CLI	-8571
▁remember	-8572
Watch	-8573
aws	-8574
▁invoked	-8575
Distance	-8576
/3.	-8577
▁Tw	-8578
▁migration	-8579
bd	-8580
inja	-8581
▁failUnless	-8582
atype	-8583
▁searched	-8584
▁extended	-8585
stdout	-8586
▁TEXT	-8587
▁cleaned	-8588
▁grab	-8589
++;	-8590
▁45	-8591
▁acl	-8592
▁recipient	-8593
iring	-8594
▁VAR	-8595
▁sil	-8596
Family	-8597
▁newline	-8598
plugins	-8599
▁swig	-8600
▁tok	-8601
▁doTest	-8602
filters	-8603
straint	-8604
dependencies	-8605
Sm	-8606
rozen	-8607
▁".	-8608
'+	-8609
▁pw	-8610
sleep	-8611
allenge	-8612
▁scop	-8613
Normal	-8614
2-	-8615
▁writeField	-8616
▁quantity	-8617
Locator	-8618
ina	-8619
▁).	-8620
▁Series	-8621
scan	-8622
▁desktop	-8623
▁Permission	-8624
Variables	-8625
refs	-8626
Management	-8627
Span	-8628
▁getLogger	-8629
iqu	-8630
▁writeInt	-8631
▁recv	-8632
ech	-8633
▁Otherwise	-8634
CONFIG	-8635
▁Encod	-8636
▁shutil	-8637
helper	-8638
▁PRI	-8639
▁decom	-8640
arter	-8641
Zero	-8642
functions	-8643
▁mox	-8644
▁expecting	-8645
NAL	-8646
mediate	-8647
4_	-8648
▁strange	-8649
▁[];	-8650
▁npm	-8651
Topic	-8652
▁stand	-8653
chunk	-8654
Serialized	-8655
▁pref	-8656
▁interested	-8657
▁specifically	-8658
▁lost	-8659
▁getMethod	-8660
CV	-8661
ocomplete	-8662
Upd	-8663
▁affect	-8664
▁inventory	-8665
Declaration	-8666
Generic	-8667
▁obviously	-8668
Username	-8669
Head	-8670
VAR	-8671
▁Symbol	-8672
▁FOR	-8673
▁coords	-8674
Latch	-8675
▁positions	-8676
visible	-8677
▁formatting	-8678
▁Domain	-8679
EM	-8680
plus	-8681
gpu	-8682
▁Both	-8683
Phone	-8684
should	-8685
▁DATA	-8686
illiseconds	-8687
▁lb	-8688
erialize	-8689
▁Box	-8690
▁minor	-8691
Enc	-8692
Alias	-8693
▁Studio	-8694
DED	-8695
▁JPA	-8696
states	-8697
Routing	-8698
ariant	-8699
▁SIG	-8700
lower	-8701
Scal	-8702
▁opacity	-8703
▁comparator	-8704
Indent	-8705
▁seeing	-8706
▁fam	-8707
imize	-8708
atives	-8709
ptime	-8710
▁Given	-8711
▁getIndex	-8712
norm	-8713
ros	-8714
▁AWS	-8715
Find	-8716
-09	-8717
EW	-8718
utation	-8719
iders	-8720
0.1	-8721
agg	-8722
LEMENT	-8723
Collector	-8724
▁Handler	-8725
********	-8726
tz	-8727
Transfer	-8728
attach	-8729
tplib	-8730
▁Preconditions	-8731
▁developing	-8732
▁chr	-8733
switch	-8734
▁restrict	-8735
▁getDec	-8736
▁2016	-8737
▁stick	-8738
▁According	-8739
remote	-8740
Missing	-8741
▁itertools	-8742
▁handled	-8743
/2	-8744
▁higher	-8745
iest	-8746
▁filepath	-8747
Inflater	-8748
Fetch	-8749
ifies	-8750
ming	-8751
verify	-8752
)))	-8753
aking	-8754
Bad	-8755
something	-8756
▁memo	-8757
laim	-8758
tractor	-8759
94	-8760
▁jsp	-8761
osity	-8762
depth	-8763
Ui	-8764
appe	-8765
▁getHost	-8766
las	-8767
Registration	-8768
▁Magic	-8769
▁ba	-8770
(2	-8771
Origin	-8772
Drop	-8773
zure	-8774
forms	-8775
3.1	-8776
▁assertAllClose	-8777
otes	-8778
▁nic	-8779
developer	-8780
▁photo	-8781
summary	-8782
nan	-8783
▁CPU	-8784
▁neg	-8785
▁collector	-8786
▁getComponent	-8787
Features	-8788
▁getActivity	-8789
6'	-8790
▁2015	-8791
▁getNum	-8792
Initial	-8793
mig	-8794
▁pin	-8795
sparse	-8796
▁utc	-8797
Cur	-8798
▁perhaps	-8799
▁mag	-8800
ellow	-8801
▁Proxy	-8802
▁accum	-8803
family	-8804
▁unlink	-8805
▁JSP	-8806
logs	-8807
rocessing	-8808
structure	-8809
▁8.	-8810
▁medi	-8811
▁startTime	-8812
▁isdir	-8813
Indices	-8814
rient	-8815
:80	-8816
▁combination	-8817
-01-01	-8818
▁Dummy	-8819
▁simpler	-8820
▁textbox	-8821
compute	-8822
▁predictions	-8823
▁wb	-8824
XY	-8825
middleware	-8826
▁Consider	-8827
▁Missing	-8828
oney	-8829
▁workflow	-8830
Changes	-8831
▁mistake	-8832
aged	-8833
cheduled	-8834
Modal	-8835
(/	-8836
commands	-8837
Under	-8838
▁Close	-8839
▁getvalue	-8840
▁strftime	-8841
Question	-8842
ette	-8843
▁readline	-8844
ializers	-8845
CTYPE	-8846
▁Creating	-8847
ializing	-8848
▁considered	-8849
▁substit	-8850
▁primitive	-8851
▁cmp	-8852
Seconds	-8853
Accept	-8854
▁"+	-8855
▁MVC	-8856
▁epoch	-8857
indent	-8858
▁Root	-8859
▁Comment	-8860
adoop	-8861
fp	-8862
▁merged	-8863
FileSystem	-8864
▁multiply	-8865
modifiable	-8866
CRE	-8867
ffff	-8868
ae	-8869
days	-8870
▁opens	-8871
▁gateway	-8872
▁Student	-8873
Put	-8874
1]	-8875
atial	-8876
▁prod	-8877
(*	-8878
member	-8879
▁Options	-8880
setText	-8881
▁guide	-8882
yc	-8883
Revision	-8884
ij	-8885
▁spe	-8886
▁Co	-8887
▁pg	-8888
▁numer	-8889
history	-8890
Stub	-8891
▁preferred	-8892
NC	-8893
Credentials	-8894
▁rotation	-8895
▁introdu	-8896
>.	-8897
▁Cert	-8898
[2]	-8899
GR	-8900
▁Criteria	-8901
svg	-8902
▁software	-8903
isode	-8904
▁resolution	-8905
▁Help	-8906
▁isfile	-8907
▁Email	-8908
▁closure	-8909
▁inserted	-8910
Rules	-8911
▁instantiate	-8912
▁fade	-8913
300	-8914
anging	-8915
upy	-8916
▁screenshot	-8917
▁READ	-8918
LES	-8919
▁broadcast	-8920
▁bunch	-8921
rand	-8922
Bo	-8923
nth	-8924
generate	-8925
▁Feature	-8926
▁dn	-8927
1">	-8928
border	-8929
▁getSu	-8930
blue	-8931
▁internet	-8932
Pixel	-8933
▁exe	-8934
▁getTable	-8935
▁pow	-8936
▁textarea	-8937
Sorted	-8938
compatible	-8939
▁Statement	-8940
▁Play	-8941
▁Language	-8942
▁setVisible	-8943
icense	-8944
▁Assuming	-8945
});	-8946
webkit	-8947
IZ	-8948
72	-8949
Replace	-8950
▁facing	-8951
52	-8952
dc	-8953
missing	-8954
▁Types	-8955
▁mx	-8956
▁pause	-8957
▁Getting	-8958
▁paragraph	-8959
miss	-8960
RESS	-8961
▁Solution	-8962
▁JDBC	-8963
currency	-8964
▁ips	-8965
prob	-8966
EE	-8967
Windows	-8968
Switch	-8969
Strings	-8970
▁findall	-8971
▁occurred	-8972
▁pieces	-8973
aring	-8974
lies	-8975
/2.1.1/	-8976
▁forEach	-8977
▁comprehension	-8978
Started	-8979
Browser	-8980
Some	-8981
FORMAT	-8982
SCRI	-8983
Trigger	-8984
ideos	-8985
▁notes	-8986
▁IF	-8987
▁SWT	-8988
▁strong	-8989
▁Render	-8990
▁Report	-8991
▁gui	-8992
▁boxes	-8993
▁Send	-8994
Requests	-8995
iny	-8996
▁irq	-8997
▁arraycopy	-8998
▁CA	-8999
etter	-9000
▁produces	-9001
odb	-9002
▁business	-9003
▁cut	-9004
▁0.9	-9005
▁workspace	-9006
alancer	-9007
3\	-9008
chool	-9009
numpy	-9010
descriptor	-9011
▁Zip	-9012
MESSAGE	-9013
▁que	-9014
▁implicit	-9015
PL	-9016
▁scipy	-9017
▁preview	-9018
▁Inject	-9019
Activ	-9020
Completed	-9021
artment	-9022
itect	-9023
▁getVersion	-9024
▁toLowerCase	-9025
▁wheel	-9026
CUR	-9027
▁wasn	-9028
=(	-9029
▁placed	-9030
Desktop	-9031
arguments	-9032
▁Sum	-9033
▁complicated	-9034
Metric	-9035
▁errno	-9036
▁Rece	-9037
▁....	-9038
GIN	-9039
eless	-9040
querySelector	-9041
▁Geo	-9042
▁SVG	-9043
▁Library	-9044
▁getSize	-9045
icsearch	-9046
▁meant	-9047
Allowed	-9048
▁subscribe	-9049
semb	-9050
▁contentType	-9051
▁RouteBuilder	-9052
imp	-9053
▁PIPE	-9054
yclerView	-9055
Loading	-9056
ITION	-9057
oves	-9058
▁hence	-9059
▁Le	-9060
inated	-9061
▁accepted	-9062
▁getService	-9063
MAP	-9064
▁sdk	-9065
Req	-9066
▁concurrent	-9067
ojo	-9068
▁tomcat	-9069
▁getView	-9070
named	-9071
400	-9072
Reason	-9073
▁sends	-9074
lists	-9075
Shared	-9076
Certificate	-9077
built	-9078
eeded	-9079
▁Comparator	-9080
▁Many	-9081
nost	-9082
erse	-9083
▁SUP	-9084
▁interpol	-9085
Filters	-9086
sert	-9087
▁NONE	-9088
▁suppose	-9089
▁took	-9090
Pipeline	-9091
▁abort	-9092
Texture	-9093
collect	-9094
▁Maps	-9095
▁JLabel	-9096
symbol	-9097
ordova	-9098
private	-9099
▁research	-9100
▁rewrite	-9101
cluster	-9102
▁operand	-9103
▁hack	-9104
▁clar	-9105
▁Strings	-9106
1111	-9107
istr	-9108
Primary	-9109
secret	-9110
ovie	-9111
▁resolver	-9112
▁initialization	-9113
house	-9114
▁VALUES	-9115
▁Facebook	-9116
▁Named	-9117
▁Vue	-9118
▁normally	-9119
▁JAXB	-9120
▁reflect	-9121
FromString	-9122
▁distinct	-9123
▁widgets	-9124
▁callbacks	-9125
ana	-9126
================	-9127
Multiple	-9128
Standard	-9129
alone	-9130
▁generating	-9131
▁NE	-9132
▁Two	-9133
▁neighb	-9134
apsed	-9135
protocol	-9136
▁codec	-9137
▁intended	-9138
disk	-9139
▁lets	-9140
Aggregation	-9141
memory	-9142
▁"\	-9143
▁tuples	-9144
scape	-9145
▁located	-9146
▁coord	-9147
contact	-9148
▁Extension	-9149
rpc	-9150
rompt	-9151
Example	-9152
▁nl	-9153
apps	-9154
()).	-9155
▁Real	-9156
slide	-9157
Tri	-9158
▁getMin	-9159
erscore	-9160
sol	-9161
_8	-9162
iry	-9163
▁handles	-9164
▁Timer	-9165
serialize	-9166
▁predicate	-9167
Dispatcher	-9168
▁%>	-9169
▁nat	-9170
Answer	-9171
Graphics	-9172
▁Take	-9173
ocial	-9174
xf	-9175
:12	-9176
parameter	-9177
▁getSession	-9178
snapshot	-9179
resentation	-9180
▁whitespace	-9181
▁AngularJS	-9182
('#	-9183
bucket	-9184
▁fullname	-9185
oreignKey	-9186
▁Platform	-9187
▁pb	-9188
▁Driver	-9189
▁variant	-9190
reflect	-9191
BASE	-9192
outputs	-9193
▁getConnection	-9194
▁START	-9195
▁SY	-9196
Effect	-9197
II	-9198
NonNull	-9199
▁incoming	-9200
▁Suppress	-9201
▁odd	-9202
Runnable	-9203
dataset	-9204
▁bulk	-9205
▁knows	-9206
;">	-9207
Hex	-9208
▁markers	-9209
Download	-9210
hat	-9211
sb	-9212
enef	-9213
Bottom	-9214
▁initializer	-9215
rier	-9216
Payload	-9217
Hint	-9218
▁TypeId	-9219
▁respond	-9220
connected	-9221
<?	-9222
student	-9223
▁jdbc	-9224
▁migrate	-9225
Codec	-9226
▁sections	-9227
▁Aggreg	-9228
▁CharSequence	-9229
▁nextInt	-9230
HOME	-9231
3-	-9232
▁succeed	-9233
cha	-9234
NotExist	-9235
▁generally	-9236
omb	-9237
▁advant	-9238
3.0	-9239
▁boundary	-9240
Scheme	-9241
▁Size	-9242
▁aliases	-9243
▁CF	-9244
▁vertices	-9245
▁35	-9246
▁Full	-9247
big	-9248
▁“	-9249
▁spam	-9250
▁underlying	-9251
▁checksum	-9252
bug	-9253
Prov	-9254
partition	-9255
56789	-9256
RT	-9257
6)	-9258
undefined	-9259
▁tempfile	-9260
▁OAuth	-9261
▁dm	-9262
▁setColor	-9263
▁leaf	-9264
▁streams	-9265
free	-9266
▁xs	-9267
▁FileInputStream	-9268
▁sqlite	-9269
▁Messages	-9270
▁recursion	-9271
▁foreign	-9272
subscribe	-9273
DP	-9274
▁ce	-9275
▁nt	-9276
bool	-9277
▁Register	-9278
▁cov	-9279
07	-9280
Operations	-9281
RS	-9282
Scanner	-9283
41	-9284
▁Every	-9285
Completion	-9286
country	-9287
period	-9288
primary	-9289
▁bc	-9290
OD	-9291
▁TType	-9292
Processing	-9293
▁readInt	-9294
Percent	-9295
▁pay	-9296
PY	-9297
break	-9298
cli	-9299
Structure	-9300
seudo	-9301
▁recently	-9302
▁globals	-9303
▁Ordered	-9304
▁<%	-9305
prev	-9306
stmt	-9307
32'	-9308
Public	-9309
vol	-9310
▁ranges	-9311
enable	-9312
phabet	-9313
▁peek	-9314
▁ASC	-9315
▁flash	-9316
prevent	-9317
▁getRequest	-9318
etty	-9319
LICATION	-9320
▁unm	-9321
Ele	-9322
basic	-9323
ising	-9324
Reply	-9325
▁mime	-9326
▁Lists	-9327
▁"2"	-9328
ListView	-9329
▁subset	-9330
edir	-9331
▁Case	-9332
wiki	-9333
▁procedure	-9334
Relative	-9335
tics	-9336
rypted	-9337
transaction	-9338
▁signed	-9339
▁anybody	-9340
▁conditional	-9341
company	-9342
AndroidRuntime	-9343
Super	-9344
▁figured	-9345
▁filenames	-9346
efficient	-9347
▁notebook	-9348
Merge	-9349
matches	-9350
________	-9351
▁disconnect	-9352
▁mb	-9353
▁TL	-9354
initial	-9355
running	-9356
clusion	-9357
pad	-9358
▁assum	-9359
isation	-9360
▁Counter	-9361
▁dialect	-9362
Chooser	-9363
▁cwd	-9364
"},	-9365
vey	-9366
Supported	-9367
▁Multiple	-9368
▁stops	-9369
:8	-9370
NOWN	-9371
▁Employee	-9372
▁Save	-9373
TRIBUT	-9374
▁Grad	-9375
weights	-9376
gable	-9377
▁cid	-9378
▁Password	-9379
Material	-9380
▁Setting	-9381
lices	-9382
begin	-9383
enk	-9384
▁drawing	-9385
▁adj	-9386
Slot	-9387
▁startup	-9388
▁Customer	-9389
Branch	-9390
▁quality	-9391
▁modul	-9392
▁submitted	-9393
GroupName	-9394
Cookie	-9395
Enable	-9396
Loaded	-9397
rating	-9398
▁getMock	-9399
▁setF	-9400
ersey	-9401
Drag	-9402
getString	-9403
▁executes	-9404
olicies	-9405
▁gt	-9406
eclipse	-9407
▁0.3	-9408
▁accepts	-9409
▁facts	-9410
▁reuse	-9411
▁moved	-9412
NK	-9413
Refer	-9414
▁iterating	-9415
▁arbit	-9416
TRA	-9417
vention	-9418
▁Trying	-9419
▁dup	-9420
IAL	-9421
Threads	-9422
▁Description	-9423
tecode	-9424
bone	-9425
bus	-9426
▁sizes	-9427
ARRAY	-9428
▁geometry	-9429
▁Hi	-9430
▁GE	-9431
ffic	-9432
Based	-9433
Common	-9434
extend	-9435
under	-9436
▁paste	-9437
outes	-9438
▁getAbsolutePath	-9439
Forward	-9440
FormatException	-9441
▁ii	-9442
VO	-9443
export	-9444
1.0"	-9445
404	-9446
▁ADD	-9447
usion	-9448
}"	-9449
▁generates	-9450
recation	-9451
▁pat	-9452
culate	-9453
▁101	-9454
▁getOr	-9455
Press	-9456
▁nor	-9457
NED	-9458
▁JButton	-9459
▁gram	-9460
Retry	-9461
▁/**	-9462
lavor	-9463
Should	-9464
▁Would	-9465
▁locally	-9466
oracle	-9467
Alloc	-9468
6_	-9469
ele	-9470
▁Visual	-9471
release	-9472
andidates	-9473
000,	-9474
▁went	-9475
▁previously	-9476
▁quant	-9477
OFF	-9478
initializer	-9479
ORE	-9480
TING	-9481
▁QtGui	-9482
▁hyper	-9483
FC	-9484
pkg	-9485
▁2'	-9486
▁AST	-9487
▁setter	-9488
▁dataType	-9489
MenuItem	-9490
Iteration	-9491
▁Cursor	-9492
▁DIS	-9493
▁MB	-9494
▁opp	-9495
▁Shared	-9496
▁encoder	-9497
▁External	-9498
▁controls	-9499
rollers	-9500
Platform	-9501
▁MagicMock	-9502
▁dense	-9503
annotation	-9504
bits	-9505
versions	-9506
times	-9507
Connected	-9508
Old	-9509
▁smart	-9510
8"	-9511
▁getTest	-9512
▁recommended	-9513
▁NUM	-9514
ORS	-9515
setEqual	-9516
Finder	-9517
▁contained	-9518
zy	-9519
Dataset	-9520
Modifier	-9521
mlink	-9522
inv	-9523
concat	-9524
▁rectangle	-9525
▁frequency	-9526
▁addon	-9527
▁accessible	-9528
resolve	-9529
TABLE	-9530
reparedStatement	-9531
▁compression	-9532
▁shadow	-9533
works	-9534
▁Region	-9535
▁la	-9536
oned	-9537
DataType	-9538
Stamp	-9539
▁getLong	-9540
▁blocking	-9541
▁locals	-9542
Publish	-9543
Expand	-9544
▁occurren	-9545
Fn	-9546
xxx	-9547
▁Vert	-9548
▁prepared	-9549
rapped	-9550
▁prior	-9551
share	-9552
failure	-9553
▁spark	-9554
▁Collect	-9555
▁stopped	-9556
▁5.0	-9557
▁vlan	-9558
▁movie	-9559
▁rng	-9560
▁decre	-9561
(['	-9562
▁lp	-9563
▁scores	-9564
▁communicate	-9565
qs	-9566
=>	-9567
▁saw	-9568
LOAD	-9569
▁months	-9570
▁pp	-9571
Mail	-9572
pecially	-9573
Members	-9574
textarea	-9575
BACK	-9576
ictionaries	-9577
Soup	-9578
SERVER	-9579
▁getChildren	-9580
▁hom	-9581
isk	-9582
▁stroke	-9583
▁getDescription	-9584
program	-9585
▁ordering	-9586
ABLED	-9587
▁expires	-9588
sy	-9589
IES	-9590
Alpha	-9591
3>	-9592
-->	-9593
▁Require	-9594
▁combined	-9595
efile	-9596
▁caused	-9597
▁InetAddress	-9598
geom	-9599
changes	-9600
▁om	-9601
xc	-9602
▁PS	-9603
facts	-9604
cfg	-9605
▁qty	-9606
tbody	-9607
▁infinite	-9608
▁Bootstrap	-9609
▁'\	-9610
repos	-9611
▁Console	-9612
▁directories	-9613
validation	-9614
dl	-9615
Direction	-9616
ivot	-9617
▁slightly	-9618
▁XPath	-9619
▁Rev	-9620
▁folders	-9621
▁Sorry	-9622
Destroy	-9623
▁'10	-9624
▁Beautiful	-9625
▁tid	-9626
repo	-9627
*/	-9628
▁forum	-9629
ony	-9630
0.0	-9631
ThreadPool	-9632
▁33	-9633
▁older	-9634
▁FLAG	-9635
padding	-9636
▁rstrip	-9637
▁Lock	-9638
▁scrolling	-9639
▁lon	-9640
▁getResult	-9641
SECONDS	-9642
▁150	-9643
▁dag	-9644
▁getConfig	-9645
ILED	-9646
▁anymore	-9647
▁0:	-9648
origin	-9649
Pending	-9650
▁receiving	-9651
city	-9652
▁JAR	-9653
▁Sequence	-9654
▁nextToken	-9655
▁navigate	-9656
THON	-9657
▁decoder	-9658
▁sg	-9659
▁${	-9660
▁37	-9661
ILLI	-9662
Annotations	-9663
processor	-9664
signature	-9665
fmt	-9666
States	-9667
charts	-9668
▁Names	-9669
▁Static	-9670
▁Regex	-9671
bm	-9672
▁"#	-9673
itories	-9674
81	-9675
▁playing	-9676
RECT	-9677
00000001	-9678
▁endsWith	-9679
▁methodName	-9680
ifferent	-9681
▁manual	-9682
ascii	-9683
Console	-9684
uint	-9685
▁typing	-9686
▁getBlock	-9687
▁whose	-9688
▁locator	-9689
▁af	-9690
▁broker	-9691
gain	-9692
▁getResources	-9693
velope	-9694
▁uploaded	-9695
Times	-9696
▁polygon	-9697
flat	-9698
▁defining	-9699
LOSE	-9700
servers	-9701
ressions	-9702
▁fairly	-9703
▁shuffle	-9704
Install	-9705
▁dataSource	-9706
Preference	-9707
urer	-9708
▁forget	-9709
Router	-9710
▁Scal	-9711
Alert	-9712
▁JavaFX	-9713
JavaScript	-9714
▁importing	-9715
FER	-9716
▁animate	-9717
defaults	-9718
▁clause	-9719
▁verbosity	-9720
Tables	-9721
▁getCount	-9722
▁serve	-9723
▁mc	-9724
▁INTO	-9725
translate	-9726
▁aspect	-9727
added	-9728
slash	-9729
▁horizontal	-9730
▁Tk	-9731
▁}).	-9732
▁Good	-9733
ims	-9734
▁getLength	-9735
▁2020	-9736
▁Uncaught	-9737
ited	-9738
aches	-9739
Subject	-9740
▁Browser	-9741
▁implementations	-9742
▁wsgi	-9743
swing	-9744
],[	-9745
▁valueObject	-9746
agram	-9747
Js	-9748
xpath	-9749
stringify	-9750
getElementsBy	-9751
POS	-9752
anode	-9753
room	-9754
indexOf	-9755
anted	-9756
▁contract	-9757
▁limited	-9758
▁easiest	-9759
etion	-9760
ERY	-9761
▁completion	-9762
▁levels	-9763
▁fin	-9764
▁tensorflow	-9765
▁Role	-9766
za	-9767
▁Its	-9768
Rot	-9769
namespace	-9770
encing	-9771
losing	-9772
iliar	-9773
▁Connect	-9774
▁stores	-9775
▁mesh	-9776
▁ImmutableMap	-9777
dropdown	-9778
▁lastComparison	-9779
itecture	-9780
alformed	-9781
▁Inv	-9782
merge	-9783
ocker	-9784
Src	-9785
Added	-9786
▁getHeader	-9787
ehicle	-9788
▁SM	-9789
Big	-9790
▁rx	-9791
▁EOF	-9792
Hook	-9793
havior	-9794
▁sites	-9795
Machine	-9796
▁onto	-9797
▁looping	-9798
:20	-9799
▁concatenate	-9800
▁separated	-9801
fg	-9802
mul	-9803
▁broken	-9804
focus	-9805
▁invalidate	-9806
▁Replace	-9807
question	-9808
Setup	-9809
TreeNode	-9810
ificant	-9811
▁Everything	-9812
Something	-9813
▁Interface	-9814
OutOfBounds	-9815
rollment	-9816
builder	-9817
▁AttributeValue	-9818
▁02	-9819
▁TE	-9820
blog	-9821
▁installing	-9822
▁tooltip	-9823
rank	-9824
Shell	-9825
▁SyntaxError	-9826
▁isIn	-9827
Canvas	-9828
▁band	-9829
▁replacing	-9830
6"	-9831
git	-9832
IV	-9833
egation	-9834
ni	-9835
Updated	-9836
2.168	-9837
8.0	-9838
Boot	-9839
▁Wait	-9840
Sheet	-9841
SIBLE	-9842
▁compatible	-9843
▁assertIsNone	-9844
▁activation	-9845
▁LayoutParams	-9846
AUTH	-9847
▁FS	-9848
64'	-9849
▁Lookup	-9850
▁Download	-9851
▁getTarget	-9852
▁Firebase	-9853
▁encrypted	-9854
▁pe	-9855
▁hits	-9856
▁Directory	-9857
▁subtract	-9858
▁writeTo	-9859
cor	-9860
▁Sl	-9861
JB	-9862
encoded	-9863
ilation	-9864
▁elapsed	-9865
ariance	-9866
REAM	-9867
▁getPort	-9868
▁Canvas	-9869
Cons	-9870
▁optimize	-9871
▁PsiClass	-9872
super	-9873
edge	-9874
ifference	-9875
logging	-9876
▁Audio	-9877
+'	-9878
▁huge	-9879
KNOWN	-9880
LET	-9881
hex	-9882
/1.1	-9883
/1	-9884
▁Alternatively	-9885
▁TRUE	-9886
NumberOf	-9887
[0],	-9888
ounce	-9889
%2	-9890
▁comparing	-9891
5_	-9892
▁salt	-9893
▁BufferedImage	-9894
dump	-9895
otos	-9896
seg	-9897
1</	-9898
Coordin	-9899
Permissions	-9900
▁boto	-9901
chars	-9902
▁(1	-9903
▁SQLite	-9904
▁worth	-9905
▁gf	-9906
▁health	-9907
▁Most	-9908
▁tmpl	-9909
anger	-9910
▁mim	-9911
▁inputStream	-9912
Disk	-9913
▁Bro	-9914
cestor	-9915
ROOT	-9916
runner	-9917
▁INSERT	-9918
Named	-9919
▁union	-9920
▁published	-9921
▁Safari	-9922
oe	-9923
▁ratio	-9924
▁setLayout	-9925
digest	-9926
oration	-9927
Week	-9928
etailed	-9929
▁Ca	-9930
mun	-9931
▁GC	-9932
▁fault	-9933
Creation	-9934
▁functional	-9935
Images	-9936
▁intercept	-9937
▁urlparse	-9938
SERVICE	-9939
▁chosen	-9940
▁moves	-9941
▁extras	-9942
▁mkdir	-9943
▁fileobj	-9944
:-	-9945
▁Implement	-9946
▁lots	-9947
Almost	-9948
Student	-9949
preventDefault	-9950
▁etree	-9951
choice	-9952
Btn	-9953
▁trig	-9954
▁Excel	-9955
foot	-9956
ensive	-9957
▁observer	-9958
▁JsonProperty	-9959
/1.	-9960
00'	-9961
enkins	-9962
▁rating	-9963
delay	-9964
▁Dynamic	-9965
▁ModelPackage	-9966
▁goog	-9967
++){	-9968
▁setMax	-9969
▁Profile	-9970
med	-9971
▁getBoolean	-9972
arrow	-9973
Geometry	-9974
▁Composite	-9975
qty	-9976
▁caret	-9977
▁unlock	-9978
RM	-9979
ERS	-9980
phere	-9981
OIN	-9982
Relation	-9983
DOWN	-9984
▁logout	-9985
andbox	-9986
▁ping	-9987
spector	-9988
▁latitude	-9989
factor	-9990
▁WARNING	-9991
▁Aut	-9992
written	-9993
▁possibly	-9994
rise	-9995
Padding	-9996
ComboBox	-9997
▁getAction	-9998
Choice	-9999
▁Usage	-10000
YY	-10001
▁getSimple	-10002
▁immutable	-10003
▁Car	-10004
▁'#	-10005
orator	-10006
▁CLASS	-10007
_00	-10008
▁accessed	-10009
Decode	-10010
▁getBean	-10011
▁"^	-10012
2",	-10013
▁throwing	-10014
▁guys	-10015
BR	-10016
▁Split	-10017
▁Serializable	-10018
got	-10019
generated	-10020
poses	-10021
upyter	-10022
▁INTER	-10023
▁QU	-10024
Criteria	-10025
%20	-10026
▁0.01	-10027
▁doub	-10028
yes	-10029
alls	-10030
▁Alert	-10031
▁tzinfo	-10032
▁SP	-10033
pip	-10034
▁di	-10035
Delta	-10036
▁iterations	-10037
▁'2'	-10038
▁opener	-10039
▁nodeName	-10040
odo	-10041
proc	-10042
▁Transform	-10043
▁Issue	-10044
▁LA	-10045
GHT	-10046
▁Popen	-10047
▁daemon	-10048
demo	-10049
▁ticket	-10050
▁sid	-10051
1);	-10052
:15	-10053
▁longitude	-10054
units	-10055
▁concern	-10056
▁34	-10057
▁0.4	-10058
slider	-10059
▁gave	-10060
Protos	-10061
▁scr	-10062
cm	-10063
▁segments	-10064
ackage	-10065
▁48	-10066
spark	-10067
▁Title	-10068
▁Progress	-10069
▁120	-10070
▁compressed	-10071
▁corre	-10072
accept	-10073
URLConnection	-10074
▁keras	-10075
▁unchecked	-10076
71	-10077
Locale	-10078
▁parenthes	-10079
▁DFS	-10080
blocks	-10081
selection	-10082
▁dirty	-10083
Analyzer	-10084
▁calculation	-10085
▁authenticate	-10086
▁writ	-10087
▁rollback	-10088
▁0'	-10089
▁accounts	-10090
ulp	-10091
inel	-10092
absolute	-10093
_2_	-10094
posal	-10095
Tools	-10096
▁Det	-10097
Views	-10098
▁getRow	-10099
Ctx	-10100
Regex	-10101
▁garbage	-10102
cribe	-10103
▁Pop	-10104
▁SAX	-10105
inger	-10106
shell	-10107
setting	-10108
Stroke	-10109
▁ViewGroup	-10110
Pressed	-10111
DC	-10112
▁smooth	-10113
addClass	-10114
mi	-10115
▁represents	-10116
(...)	-10117
Separator	-10118
▁inheritance	-10119
:6	-10120
▁sink	-10121
TT	-10122
▁"";	-10123
steps	-10124
▁01	-10125
Unm	-10126
cached	-10127
▁2014	-10128
arently	-10129
▁Executor	-10130
▁duplicates	-10131
erce	-10132
▁ISO	-10133
()"	-10134
omial	-10135
multiple	-10136
hosts	-10137
Verify	-10138
tokens	-10139
ActivityThread	-10140
▁myProject	-10141
▁feedback	-10142
team	-10143
▁HO	-10144
▁Thus	-10145
▁'__	-10146
▁Length	-10147
▁improve	-10148
Tensor	-10149
▁independ	-10150
saved	-10151
▁CONTENT	-10152
FOR	-10153
NN	-10154
▁Sn	-10155
▁mechanism	-10156
▁unused	-10157
▁10.0	-10158
/#	-10159
▁spread	-10160
▁orientation	-10161
Interceptor	-10162
▁gtk	-10163
ying	-10164
▁bold	-10165
▁Callable	-10166
fb	-10167
Now	-10168
▁Did	-10169
▁reversed	-10170
going	-10171
ourses	-10172
PRI	-10173
▁BorderLayout	-10174
vec	-10175
▁tcp	-10176
Tip	-10177
Hand	-10178
▁Card	-10179
▁iv	-10180
▁doesnt	-10181
WA	-10182
sorted	-10183
preter	-10184
▁setInterval	-10185
▁ByteString	-10186
▁attempts	-10187
fl	-10188
HashSet	-10189
math	-10190
▁actionPerformed	-10191
▁isol	-10192
82	-10193
▁tracker	-10194
upt	-10195
week	-10196
▁proceed	-10197
getName	-10198
ils	-10199
Fire	-10200
▁disappe	-10201
▁failing	-10202
▁svn	-10203
ino	-10204
▁getMockEndpoint	-10205
layers	-10206
▁9.	-10207
rain	-10208
ASH	-10209
Creator	-10210
▁COLUMN	-10211
imated	-10212
▁199	-10213
-8"	-10214
▁5000	-10215
▁repos	-10216
olver	-10217
▁secondary	-10218
createElement	-10219
LOB	-10220
records	-10221
▁Accept	-10222
until	-10223
uk	-10224
warnings	-10225
▁terminate	-10226
▁Shard	-10227
▁cpp	-10228
▁Batch	-10229
Dictionary	-10230
▁KeyEvent	-10231
▁overlay	-10232
▁regarding	-10233
▁setVisibility	-10234
▁javafx	-10235
▁Agent	-10236
Ok	-10237
Zip	-10238
▁official	-10239
vity	-10240
▁TCP	-10241
▁benef	-10242
▁printer	-10243
publish	-10244
▁deb	-10245
▁san	-10246
egant	-10247
▁-0.	-10248
▁cod	-10249
AlmostEqual	-10250
bas	-10251
Ent	-10252
▁SUB	-10253
="#">	-10254
Versions	-10255
lopen	-10256
▁'',	-10257
▁getDocument	-10258
1",	-10259
▁Operator	-10260
▁bridge	-10261
▁./	-10262
▁BE	-10263
▁Info	-10264
▁legend	-10265
tutorial	-10266
small	-10267
▁gyp	-10268
▁ago	-10269
unnel	-10270
rientation	-10271
aste	-10272
sync	-10273
pandas	-10274
bundle	-10275
Picker	-10276
▁lr	-10277
▁formula	-10278
Does	-10279
▁subs	-10280
ano	-10281
Matches	-10282
Ready	-10283
▁tells	-10284
▁mo	-10285
▁integration	-10286
▁decided	-10287
▁arbitrary	-10288
▁dfs	-10289
uate	-10290
NA	-10291
▁prog	-10292
boss	-10293
▁Reader	-10294
sume	-10295
▁milliseconds	-10296
catal	-10297
scripts	-10298
Indicator	-10299
▁Although	-10300
▁getInput	-10301
members	-10302
Customer	-10303
':'	-10304
Sent	-10305
expression	-10306
▁John	-10307
▁AUTH	-10308
▁suspect	-10309
▁Sorted	-10310
▁splitlines	-10311
0-9	-10312
▁basestring	-10313
▁Scroll	-10314
Contain	-10315
Ord	-10316
▁discard	-10317
▁groupby	-10318
REG	-10319
▁listed	-10320
▁sounds	-10321
expand	-10322
Fixture	-10323
▁rd	-10324
▁Serialize	-10325
▁multiprocessing	-10326
(0)	-10327
▁Working	-10328
▁failures	-10329
Hub	-10330
Assignment	-10331
Infos	-10332
IE	-10333
▁shapes	-10334
(10	-10335
▁44	-10336
▁mong	-10337
Priority	-10338
▁divide	-10339
53	-10340
▁getDisplay	-10341
FFER	-10342
▁generation	-10343
▁Js	-10344
▁decoded	-10345
Dimension	-10346
▁getImage	-10347
CLI	-10348
trigger	-10349
alpha	-10350
▁88	-10351
▁drive	-10352
▁WR	-10353
sim	-10354
▁getEntity	-10355
Cost	-10356
EGER	-10357
even	-10358
8/	-10359
Dependency	-10360
▁FIELD	-10361
TIMEOUT	-10362
tabs	-10363
▁organization	-10364
ATIC	-10365
▁star	-10366
▁tkinter	-10367
▁filesystem	-10368
▁ended	-10369
▁setDefault	-10370
▁simplify	-10371
cluding	-10372
▁nullable	-10373
/200	-10374
▁discover	-10375
▁sigma	-10376
▁interact	-10377
deg	-10378
izable	-10379
▁creator	-10380
▁ke	-10381
▁bindings	-10382
ota	-10383
▁ftype	-10384
ira	-10385
▁dependent	-10386
(".	-10387
REE	-10388
PM	-10389
'));	-10390
'},	-10391
pointer	-10392
▁Ker	-10393
▁specification	-10394
▁userName	-10395
▁jump	-10396
Light	-10397
▁checkpoint	-10398
}}</	-10399
ategorical	-10400
Compiler	-10401
▁propertyName	-10402
▁NS	-10403
itical	-10404
"],	-10405
AI	-10406
▁mContext	-10407
▁wants	-10408
embed	-10409
▁Processor	-10410
sem	-10411
CONTENT	-10412
▁Edge	-10413
Between	-10414
▁Keep	-10415
Mix	-10416
▁dictionaries	-10417
▁setTitle	-10418
▁definitely	-10419
▁Member	-10420
▁msv	-10421
otionEvent	-10422
Seq	-10423
fast	-10424
STATUS	-10425
une	-10426
region	-10427
olid	-10428
▁brackets	-10429
▁Contact	-10430
▁getAddress	-10431
▁submission	-10432
▁mapp	-10433
fixture	-10434
JNI	-10435
▁:-	-10436
▁Cookie	-10437
duration	-10438
▁bi	-10439
Sender	-10440
modified	-10441
51	-10442
▁9,	-10443
▁hints	-10444
isted	-10445
handlers	-10446
Spring	-10447
:11	-10448
▁mixed	-10449
▁compilation	-10450
Age	-10451
uator	-10452
▁Insert	-10453
raise	-10454
▁(1,	-10455
groupby	-10456
▁decide	-10457
▁"10	-10458
▁entirely	-10459
▁asc	-10460
▁breaks	-10461
distance	-10462
START	-10463
andra	-10464
▁allocation	-10465
sources	-10466
TEMP	-10467
Please	-10468
▁earlier	-10469
▁getUrl	-10470
:14	-10471
itory	-10472
Gre	-10473
strong	-10474
2">	-10475
▁groupId	-10476
▁writeString	-10477
ATURE	-10478
▁passes	-10479
73	-10480
▁sty	-10481
▁httplib	-10482
▁");	-10483
prepare	-10484
compar	-10485
Authentic	-10486
▁newArrayList	-10487
▁bias	-10488
▁assigning	-10489
92	-10490
▁reserved	-10491
▁skipped	-10492
="@+	-10493
CD	-10494
▁setState	-10495
▁Metadata	-10496
etc	-10497
▁toolbar	-10498
▁Concurrent	-10499
Imp	-10500
▁setType	-10501
same	-10502
Phase	-10503
original	-10504
HttpClient	-10505
};	-10506
▁holds	-10507
binding	-10508
▁Patient	-10509
activate	-10510
[:,	-10511
()">	-10512
▁inp	-10513
exceptions	-10514
▁Intelli	-10515
▁Factory	-10516
▁ET	-10517
Projects	-10518
ester	-10519
Transition	-10520
▁writes	-10521
▁ll	-10522
▁getBody	-10523
listener	-10524
▁ndim	-10525
cuit	-10526
▁jsfiddle	-10527
▁tarinfo	-10528
latest	-10529
▁stay	-10530
branch	-10531
Push	-10532
instances	-10533
▁unset	-10534
Invocation	-10535
▁defer	-10536
▁fallback	-10537
▁Stub	-10538
▁unn	-10539
SM	-10540
▁REQUEST	-10541
▁concrete	-10542
▁facebook	-10543
2);	-10544
▁especially	-10545
0001	-10546
istogram	-10547
entifier	-10548
("#	-10549
▁bash	-10550
▁cy	-10551
Peer	-10552
▁nick	-10553
▁unregister	-10554
▁HttpRequest	-10555
▁circ	-10556
▁surface	-10557
▁hierarchy	-10558
clone	-10559
▁MainActivity	-10560
▁SHA	-10561
Partial	-10562
configure	-10563
▁essentially	-10564
signal	-10565
nl	-10566
▁assertContains	-10567
jdk	-10568
}</	-10569
etooth	-10570
Ratio	-10571
existing	-10572
BB	-10573
▁ordinal	-10574
unct	-10575
Repo	-10576
▁album	-10577
CPtr	-10578
amps	-10579
──	-10580
5.0	-10581
Audio	-10582
compiler	-10583
ropy	-10584
▁kwds	-10585
▁clearly	-10586
▁STATUS	-10587
wsgi	-10588
▁footer	-10589
▁0.8	-10590
Blob	-10591
Car	-10592
assets	-10593
We	-10594
▁blah	-10595
▁wire	-10596
TES	-10597
[2	-10598
▁accuracy	-10599
requests	-10600
Contract	-10601
▁asarray	-10602
▁Integ	-10603
appendChild	-10604
▁180	-10605
Assoc	-10606
▁ded	-10607
ANGE	-10608
▁PrintWriter	-10609
Sibling	-10610
ATTER	-10611
andatory	-10612
Require	-10613
▁knowledge	-10614
▁migrations	-10615
▁swigCPtr	-10616
ku	-10617
rolled	-10618
▁Position	-10619
▁Will	-10620
visor	-10621
sdl	-10622
Later	-10623
blank	-10624
▁gamma	-10625
DOCTYPE	-10626
▁setContentView	-10627
▁webpack	-10628
ARK	-10629
▁combo	-10630
20,	-10631
assandra	-10632
▁principal	-10633
Free	-10634
IDTH	-10635
▁orders	-10636
asper	-10637
62	-10638
ERO	-10639
Regexp	-10640
Illegal	-10641
▁getError	-10642
▁Internet	-10643
ikip	-10644
Dim	-10645
SSWORD	-10646
▁Authorization	-10647
ipt	-10648
Shards	-10649
ament	-10650
Arrays	-10651
/4	-10652
▁encountered	-10653
NUMBER	-10654
ALSE	-10655
nbsp	-10656
Optional	-10657
▁Bl	-10658
▁raised	-10659
▁assertNotEqual	-10660
▁getOutput	-10661
HEADER	-10662
▁na	-10663
▁getPr	-10664
▁elegant	-10665
OptionPane	-10666
▁dry	-10667
▁Total	-10668
▁authorization	-10669
ersistent	-10670
/1/	-10671
▁gather	-10672
▁Testing	-10673
HOST	-10674
Reset	-10675
▁closest	-10676
128	-10677
antic	-10678
ursive	-10679
▁70	-10680
>"	-10681
▁Got	-10682
Clear	-10683
▁deps	-10684
▁Actually	-10685
▁encryption	-10686
Distribution	-10687
lision	-10688
marker	-10689
extensions	-10690
▁virtualenv	-10691
Destination	-10692
▁scalar	-10693
ActionListener	-10694
\.	-10695
▁propag	-10696
▁transparent	-10697
▁CR	-10698
ends	-10699
Pager	-10700
▁purposes	-10701
▁indeed	-10702
Primitive	-10703
UpperCase	-10704
▁Site	-10705
▁tip	-10706
▁getResponse	-10707
▁locate	-10708
viously	-10709
Anchor	-10710
▁editable	-10711
▁legacy	-10712
ascade	-10713
▁'2	-10714
ieving	-10715
▁2013	-10716
▁filePath	-10717
Go	-10718
▁Pipeline	-10719
▁tel	-10720
Decl	-10721
▁getEnd	-10722
avel	-10723
▁ri	-10724
Gateway	-10725
▁OB	-10726
▁operators	-10727
▁getSystem	-10728
▁LEFT	-10729
▁Based	-10730
stood	-10731
▁Following	-10732
▁enqueue	-10733
ny	-10734
arest	-10735
getText	-10736
nowledge	-10737
▁Provider	-10738
topic	-10739
▁getSimpleName	-10740
recision	-10741
VEL	-10742
▁Stat	-10743
▁Spark	-10744
emonstr	-10745
▁firefox	-10746
Ack	-10747
▁players	-10748
▁wor	-10749
▁ClassLoader	-10750
▁omit	-10751
▁getClient	-10752
xe	-10753
▁curve	-10754
61	-10755
▁interesting	-10756
▁pointed	-10757
anc	-10758
2</	-10759
utors	-10760
▁quit	-10761
vn	-10762
utron	-10763
fixed	-10764
GROUP	-10765
Tokenizer	-10766
▁agg	-10767
▁designed	-10768
Radius	-10769
virt	-10770
▁BeautifulSoup	-10771
▁fh	-10772
notes	-10773
Lite	-10774
▁pres	-10775
▁Warning	-10776
▁ks	-10777
Satisfied	-10778
Health	-10779
aur	-10780
▁Ubuntu	-10781
▁Drop	-10782
7"	-10783
▁coordinate	-10784
confirm	-10785
rb	-10786
▁life	-10787
▁3.1	-10788
ikipedia	-10789
▁isNull	-10790
▁SUCCESS	-10791
Less	-10792
▁getElements	-10793
hort	-10794
▁persistence	-10795
▁Win	-10796
Virtual	-10797
Cleanup	-10798
▁tester	-10799
▁identical	-10800
FilePath	-10801
SUB	-10802
Keep	-10803
projects	-10804
icip	-10805
Linear	-10806
Initializer	-10807
Angle	-10808
xsd	-10809
INDEX	-10810
lint	-10811
▁55	-10812
updated	-10813
▁nm	-10814
Qualified	-10815
▁repl	-10816
▁JB	-10817
▁listdir	-10818
▁arc	-10819
ERT	-10820
junit	-10821
counts	-10822
▁inflater	-10823
esome	-10824
▁firebase	-10825
▁listOf	-10826
Img	-10827
▁graphics	-10828
TON	-10829
JO	-10830
efully	-10831
▁containers	-10832
rab	-10833
Extensions	-10834
........	-10835
tables	-10836
HttpServlet	-10837
▁intersection	-10838
BA	-10839
ading	-10840
▁Shape	-10841
▁HOST	-10842
di	-10843
▁Nonnull	-10844
Buff	-10845
▁theta	-10846
▁PUT	-10847
▁war	-10848
▁complexity	-10849
▁AF	-10850
▁ActionListener	-10851
Dirs	-10852
DING	-10853
▁!==	-10854
▁namespaces	-10855
cmp	-10856
Blank	-10857
▁nova	-10858
Sets	-10859
▁advantage	-10860
CKET	-10861
/0	-10862
specific	-10863
▁normalized	-10864
▁SA	-10865
DEF	-10866
▁hot	-10867
▁Timeout	-10868
▁Fetch	-10869
▁getLog	-10870
▁foobar	-10871
▁fraction	-10872
xxxx	-10873
vl	-10874
▁Elast	-10875
hostname	-10876
▁vendor	-10877
othing	-10878
▁Dataset	-10879
Attrs	-10880
▁Duration	-10881
▁ROOT	-10882
ignore	-10883
estions	-10884
▁sendBody	-10885
irt	-10886
Sources	-10887
owired	-10888
SocketAddress	-10889
beat	-10890
bg	-10891
▁nodeId	-10892
▁JComponent	-10893
-201	-10894
fade	-10895
▁Chart	-10896
▁composite	-10897
ria	-10898
▁grammar	-10899
Clause	-10900
Testing	-10901
▁Manager	-10902
Occ	-10903
aily	-10904
FN	-10905
suffix	-10906
▁kv	-10907
▁JSONArray	-10908
▁Inf	-10909
▁preserve	-10910
runtime	-10911
▁filtering	-10912
▁notation	-10913
AndGet	-10914
▁runnable	-10915
>'	-10916
▁exceed	-10917
KEN	-10918
▁Ne	-10919
▁dol	-10920
▁proj	-10921
RuntimeException	-10922
alloc	-10923
▁Groovy	-10924
▁currentThread	-10925
▁ttl	-10926
▁Join	-10927
▁challenge	-10928
Documents	-10929
refresh	-10930
Sink	-10931
Own	-10932
▁'./	-10933
▁09	-10934
▁histogram	-10935
▁DAT	-10936
▁Matcher	-10937
▁getTotal	-10938
▁balance	-10939
aaaa	-10940
transition	-10941
▁GROUP	-10942
▁classifier	-10943
eteor	-10944
▁mismatch	-10945
Theme	-10946
▁posting	-10947
▁atomic	-10948
Viewer	-10949
▁copyOf	-10950
Composite	-10951
▁fired	-10952
▁randint	-10953
uling	-10954
▁Policy	-10955
▁middleware	-10956
▁strugg	-10957
pus	-10958
jav	-10959
▁BO	-10960
.:	-10961
▁patient	-10962
ruit	-10963
RPC	-10964
▁thank	-10965
sites	-10966
▁iface	-10967
rack	-10968
ablish	-10969
gnoring	-10970
▁ANY	-10971
▁findBy	-10972
Functions	-10973
▁getLocation	-10974
cancel	-10975
▁opcode	-10976
▁0.6	-10977
▁confusing	-10978
▁Fixed	-10979
1;	-10980
PTIONS	-10981
▁Without	-10982
▁Constant	-10983
Private	-10984
)).	-10985
▁canonical	-10986
▁Home	-10987
▁cdata	-10988
▁Answer	-10989
▁Refer	-10990
reverse	-10991
ebody	-10992
owner	-10993
▁annotate	-10994
Authorization	-10995
▁getJob	-10996
power	-10997
▁spawn	-10998
▁emptyList	-10999
▁marked	-11000
('<	-11001
ificates	-11002
ordered	-11003
▁credit	-11004
▁redis	-11005
▁bd	-11006
▁mongo	-11007
▁Identity	-11008
Principal	-11009
▁assertSame	-11010
▁QName	-11011
Safe	-11012
Hit	-11013
83	-11014
▁reflection	-11015
▁2012	-11016
▁capital	-11017
▁Rad	-11018
FieldName	-11019
▁floor	-11020
▁Binding	-11021
sock	-11022
)/	-11023
Speed	-11024
ously	-11025
▁retVal	-11026
▁Certificate	-11027
Overflow	-11028
▁lab	-11029
▁SERVER	-11030
Chat	-11031
▁tol	-11032
▁Partition	-11033
pective	-11034
▁BLOCK	-11035
Export	-11036
7.0	-11037
auss	-11038
▁buckets	-11039
-1]	-11040
▁turns	-11041
▁colour	-11042
ctl	-11043
IndexOf	-11044
GN	-11045
▁programs	-11046
▁startActivity	-11047
▁CC	-11048
▁Screen	-11049
stackoverflow	-11050
▁Und	-11051
comments	-11052
▁getModel	-11053
ANS	-11054
▁Direct	-11055
LEASE	-11056
Endpoints	-11057
2;	-11058
▁GridBag	-11059
▁WebDriver	-11060
▁susp	-11061
sig	-11062
Beans	-11063
cost	-11064
▁promises	-11065
▁Need	-11066
/*	-11067
processed	-11068
▁separately	-11069
rink	-11070
fish	-11071
▁DATE	-11072
▁1]	-11073
Problem	-11074
▁selecting	-11075
9)	-11076
▁"2	-11077
▁craw	-11078
Notify	-11079
▁grade	-11080
▁mt	-11081
▁TestCase	-11082
por	-11083
▁saf	-11084
ACTION	-11085
▁keeping	-11086
Accessible	-11087
▁Phone	-11088
ems	-11089
axes	-11090
▁familiar	-11091
▁applet	-11092
cwd	-11093
▁Encoding	-11094
▁ack	-11095
prov	-11096
external	-11097
▁"-	-11098
2020	-11099
scriber	-11100
CONNE	-11101
▁interactive	-11102
▁editing	-11103
▁books	-11104
▁jars	-11105
gradient	-11106
]*	-11107
▁Develop	-11108
▁glyph	-11109
▁computed	-11110
references	-11111
="">	-11112
▁Instant	-11113
METH	-11114
▁quota	-11115
▁datastore	-11116
shared	-11117
▁Transport	-11118
uer	-11119
alchemy	-11120
▁issub	-11121
Encoded	-11122
▁demonstr	-11123
▁Material	-11124
▁yout	-11125
Tog	-11126
▁scrap	-11127
udget	-11128
▁metaData	-11129
▁Soft	-11130
CR	-11131
Include	-11132
xa	-11133
jobs	-11134
CACHE	-11135
edirs	-11136
▁setSelected	-11137
▁getGroup	-11138
aret	-11139
▁toByteArray	-11140
▁cum	-11141
▁Predicate	-11142
cart	-11143
permissions	-11144
Camera	-11145
illing	-11146
suite	-11147
ighter	-11148
3333	-11149
▁PL	-11150
▁shortcut	-11151
▁usr	-11152
▁remain	-11153
▁limits	-11154
rated	-11155
▁ParseException	-11156
ReadOnly	-11157
ooper	-11158
▁RUN	-11159
▁simplest	-11160
▁Raw	-11161
▁defines	-11162
MAIL	-11163
▁WebSocket	-11164
▁checkboxes	-11165
▁orm	-11166
▁differences	-11167
[0])	-11168
;"	-11169
▁Artifact	-11170
Classifier	-11171
▁refers	-11172
{}	-11173
▁inverse	-11174
▁preference	-11175
▁leading	-11176
▁deleting	-11177
▁statistics	-11178
allowed	-11179
▁si	-11180
▁fid	-11181
▁Consumer	-11182
▁assertNotIn	-11183
ampling	-11184
▁dispatcher	-11185
Queries	-11186
▁dao	-11187
ulating	-11188
▁Generated	-11189
Blocking	-11190
▁bigger	-11191
CTED	-11192
▁decrypt	-11193
ampa	-11194
placeholder	-11195
green	-11196
▁beginner	-11197
PARATOR	-11198
▁expects	-11199
IR	-11200
▁reactor	-11201
▁modification	-11202
boolean	-11203
▁preced	-11204
▁isEnabled	-11205
▁JOIN	-11206
▁PC	-11207
mq	-11208
digit	-11209
▁getColor	-11210
▁fork	-11211
▁finds	-11212
▁sessions	-11213
etched	-11214
▁Metric	-11215
egg	-11216
▁cle	-11217
▁uniform	-11218
▁stubs	-11219
▁combinations	-11220
▁Analy	-11221
▁estimator	-11222
▁El	-11223
▁BASE	-11224
metric	-11225
croll	-11226
complex	-11227
▁preferences	-11228
nested	-11229
▁draft	-11230
▁JOptionPane	-11231
▁formset	-11232
▁localStorage	-11233
Digest	-11234
▁Cap	-11235
versal	-11236
▁weak	-11237
upd	-11238
▁Anyone	-11239
linear	-11240
▁wizard	-11241
Cause	-11242
▁getTask	-11243
▁descr	-11244
MX	-11245
schemas	-11246
▁PsiMethod	-11247
xies	-11248
▁calculated	-11249
▁sorry	-11250
▁snap	-11251
▁addTo	-11252
▁frozen	-11253
cv	-11254
icast	-11255
▁getTag	-11256
▁manipulate	-11257
ORIZ	-11258
▁edited	-11259
▁ORDER	-11260
▁audit	-11261
▁Append	-11262
▁nodelist	-11263
▁600	-11264
important	-11265
▁ill	-11266
ifecycle	-11267
Archive	-11268
▁FileNotFound	-11269
▁fos	-11270
integer	-11271
▁decision	-11272
▁getUn	-11273
culator	-11274
▁"12	-11275
▁sprite	-11276
2\	-11277
▁differently	-11278
▁vocab	-11279
▁onchange	-11280
▁General	-11281
WORK	-11282
sep	-11283
▁finalize	-11284
Und	-11285
▁'12	-11286
91	-11287
Transformer	-11288
▁retrieved	-11289
▁deepcopy	-11290
2,3,	-11291
▁chapter	-11292
▁todo	-11293
UILD	-11294
umps	-11295
Room	-11296
CB	-11297
ball	-11298
▁quickly	-11299
authentic	-11300
(\	-11301
Att	-11302
▁accordingly	-11303
▁META	-11304
▁tokenizer	-11305
installed	-11306
DataSet	-11307
▁2.1	-11308
TS	-11309
▁repaint	-11310
▁sale	-11311
▁CODE	-11312
▁deployed	-11313
xyz	-11314
////	-11315
Release	-11316
Ops	-11317
▁compared	-11318
UMENT	-11319
▁happened	-11320
Vars	-11321
Orientation	-11322
erry	-11323
▁Eval	-11324
▁song	-11325
▁benchmark	-11326
Sim	-11327
▁indexing	-11328
Ne	-11329
patterns	-11330
63	-11331
article	-11332
ivy	-11333
Wrap	-11334
▁actor	-11335
▁playlist	-11336
erator	-11337
▁URLs	-11338
000/	-11339
BIN	-11340
Course	-11341
LEAN	-11342
0,0,	-11343
POINT	-11344
▁ACT	-11345
▁rh	-11346
▁hdfs	-11347
.<	-11348
▁ASCII	-11349
▁replaceAll	-11350
_7	-11351
▁discussion	-11352
UBLE	-11353
▁deferred	-11354
OLD	-11355
▁excluded	-11356
STAMP	-11357
▁percentage	-11358
▁Loop	-11359
jb	-11360
riterion	-11361
operation	-11362
▁instrument	-11363
abric	-11364
▁detected	-11365
▁priv	-11366
▁logits	-11367
alette	-11368
equ	-11369
rivileged	-11370
Words	-11371
▁Cred	-11372
▁Power	-11373
Dependencies	-11374
▁onChanged	-11375
▁explained	-11376
ainder	-11377
Uid	-11378
▁defaultdict	-11379
▁setM	-11380
▁coverage	-11381
▁Mutable	-11382
▁xyz	-11383
▁Bind	-11384
ahead	-11385
TRIBUTE	-11386
IDs	-11387
▁Video	-11388
world	-11389
ORD	-11390
Aware	-11391
▁Style	-11392
▁reports	-11393
fff	-11394
▁SW	-11395
ENTER	-11396
ampaign	-11397
▁SOAP	-11398
="1.0"	-11399
▁Pool	-11400
▁authors	-11401
agger	-11402
▁CONFIG	-11403
FLAGS	-11404
MASK	-11405
getter	-11406
skip	-11407
▁syn	-11408
Interrupt	-11409
▁SIZE	-11410
audio	-11411
peated	-11412
Lex	-11413
losure	-11414
execution	-11415
listen	-11416
▁aux	-11417
▁Lat	-11418
Nested	-11419
▁infer	-11420
-1,	-11421
▁transpose	-11422
▁ctrl	-11423
fake	-11424
bro	-11425
erializer	-11426
▁qualified	-11427
00"	-11428
▁readonly	-11429
▁##	-11430
▁Either	-11431
▁getCause	-11432
▁neither	-11433
Numbers	-11434
▁reached	-11435
▁systems	-11436
elines	-11437
▁ENT	-11438
Clicked	-11439
Elem	-11440
ressor	-11441
Recover	-11442
identifier	-11443
▁packageName	-11444
(0);	-11445
coin	-11446
▁bund	-11447
flush	-11448
▁INDEX	-11449
argv	-11450
Disabled	-11451
filer	-11452
▁visited	-11453
▁ring	-11454
▁rmt	-11455
inline	-11456
actoring	-11457
PH	-11458
consist	-11459
___	-11460
ENG	-11461
examples	-11462
▁observable	-11463
Surface	-11464
(...	-11465
▁RM	-11466
ua	-11467
Append	-11468
▁"",	-11469
urchase	-11470
▁00:00:00	-11471
▁netloc	-11472
:8080	-11473
▁utility	-11474
implement	-11475
▁tutorials	-11476
▁Merge	-11477
▁convertTo	-11478
▁ci	-11479
allclose	-11480
formance	-11481
Links	-11482
▁(?	-11483
PROPERTY	-11484
_64	-11485
ergy	-11486
,'	-11487
stderr	-11488
▁purchase	-11489
(3	-11490
Camel	-11491
▁Conf	-11492
ettle	-11493
Attachment	-11494
▁AndReturn	-11495
constraint	-11496
▁tl	-11497
versation	-11498
▁Subject	-11499
▁highest	-11500
▁retain	-11501
Modules	-11502
▁DIV	-11503
TypeName	-11504
▁aggregation	-11505
dimension	-11506
▁Generate	-11507
iframe	-11508
future	-11509
▁intermediate	-11510
(@	-11511
Backend	-11512
▁architecture	-11513
▁CS	-11514
▁setHeader	-11515
▁news	-11516
▁getPackage	-11517
▁Snapshot	-11518
anonymous	-11519
angles	-11520
▁assets	-11521
▁{1	-11522
locale	-11523
▁setData	-11524
▁modifying	-11525
closed	-11526
▁prefs	-11527
GG	-11528
▁bank	-11529
Medi	-11530
VoCollection	-11531
Conversion	-11532
▁readString	-11533
▁subsequ	-11534
▁expanded	-11535
▁Fast	-11536
12,	-11537
Exceptions	-11538
▁getSelection	-11539
jQuery	-11540
:100	-11541
▁serialization	-11542
▁wa	-11543
slug	-11544
Est	-11545
resize	-11546
.*;	-11547
▁De	-11548
NULL	-11549
Manifest	-11550
black	-11551
ATED	-11552
▁px	-11553
▁attack	-11554
▁getToken	-11555
eph	-11556
▁reporter	-11557
-15	-11558
▁getBase	-11559
arehouse	-11560
OBJECT	-11561
▁story	-11562
▁mutable	-11563
timer	-11564
tl	-11565
▁reprodu	-11566
live	-11567
▁ActionEvent	-11568
Dynamic	-11569
▁Mode	-11570
Middleware	-11571
▁somebody	-11572
bars	-11573
------------	-11574
▁GMT	-11575
▁tbl	-11576
met	-11577
channels	-11578
▁dw	-11579
hot	-11580
ills	-11581
lst	-11582
Pages	-11583
▁struggling	-11584
Soft	-11585
subject	-11586
BT	-11587
▁PORT	-11588
▁ImmutableSet	-11589
Locations	-11590
▁0.25	-11591
▁ATTR	-11592
▁physical	-11593
Replic	-11594
andling	-11595
▁welcome	-11596
Scene	-11597
lapsed	-11598
▁ListView	-11599
<>();	-11600
TOKEN	-11601
MessageCount	-11602
DownLatch	-11603
▁fatal	-11604
="#"	-11605
intent	-11606
Stmt	-11607
>",	-11608
▁thumb	-11609
Ac	-11610
▁removeAll	-11611
▁idle	-11612
secure	-11613
▁splitext	-11614
override	-11615
Mappings	-11616
tc	-11617
▁proposed	-11618
▁getJ	-11619
ye	-11620
xception	-11621
:7	-11622
Receive	-11623
▁Interval	-11624
.5	-11625
▁injection	-11626
▁leak	-11627
ails	-11628
▁oct	-11629
Mutable	-11630
resp	-11631
Using	-11632
▁embedding	-11633
8_	-11634
▁fm	-11635
▁Registry	-11636
Diag	-11637
argest	-11638
▁appending	-11639
▁fis	-11640
about	-11641
▁Clean	-11642
may	-11643
>{{	-11644
▁caching	-11645
▁definitions	-11646
▁sentinel	-11647
▁cards	-11648
▁TEMP	-11649
NTH	-11650
▁twitter	-11651
licable	-11652
▁Perhaps	-11653
▁Framework	-11654
▁Wrong	-11655
▁PsiType	-11656
▁youtube	-11657
kb	-11658
Fault	-11659
▁picking	-11660
▁Br	-11661
▁curs	-11662
1\	-11663
PK	-11664
onic	-11665
▁FORM	-11666
3',	-11667
▁Endpoint	-11668
SPON	-11669
▁restriction	-11670
▁requireNonNull	-11671
▁SubElement	-11672
▁Parameters	-11673
RF	-11674
ARCH	-11675
▁initially	-11676
▁1);	-11677
seed	-11678
hcp	-11679
;}	-11680
▁ImageView	-11681
Asset	-11682
▁MotionEvent	-11683
drag	-11684
▁getLine	-11685
itation	-11686
itelist	-11687
specs	-11688
▁Starting	-11689
▁inher	-11690
▁evaluated	-11691
poly	-11692
▁Amazon	-11693
ParseException	-11694
▁indexed	-11695
▁CL	-11696
▁ByteBuf	-11697
parseInt	-11698
FFFF	-11699
▁dem	-11700
Unmarshaller	-11701
▁[1	-11702
▁locked	-11703
▁significant	-11704
environ	-11705
▁human	-11706
[0-9	-11707
▁mass	-11708
percent	-11709
▁CUR	-11710
Alignment	-11711
special	-11712
devices	-11713
registry	-11714
artbeat	-11715
Codes	-11716
▁Move	-11717
▁Icon	-11718
▁Ant	-11719
NEL	-11720
speed	-11721
▁APIs	-11722
▁simplified	-11723
▁readLine	-11724
▁nc	-11725
Confirm	-11726
▁xxx	-11727
STEM	-11728
▁Measure	-11729
Embed	-11730
setitem	-11731
statement	-11732
▁latch	-11733
▁xm	-11734
▁grouping	-11735
▁triggers	-11736
▁webapp	-11737
▁persistent	-11738
FR	-11739
▁projection	-11740
▁bp	-11741
▁Resources	-11742
▁wildcard	-11743
▁guessing	-11744
▁coef	-11745
Generated	-11746
Translation	-11747
▁corner	-11748
▁")	-11749
▁slash	-11750
▁250	-11751
pairs	-11752
▁Easy	-11753
▁meth	-11754
▁blocked	-11755
since	-11756
▁Fiddle	-11757
Pres	-11758
▁Bucket	-11759
oles	-11760
▁spider	-11761
MAN	-11762
▁"$	-11763
▁ann	-11764
▁MODE	-11765
▁curl	-11766
Until	-11767
white	-11768
Binder	-11769
lik	-11770
▁impossible	-11771
▁possibility	-11772
▁Best	-11773
▁ioe	-11774
▁Extract	-11775
▁unsigned	-11776
▁masked	-11777
ety	-11778
orrent	-11779
▁resultSet	-11780
▁Adapter	-11781
▁dealing	-11782
failed	-11783
\/	-11784
CheckBox	-11785
SN	-11786
Parts	-11787
tras	-11788
Multimap	-11789
▁Success	-11790
Slice	-11791
▁TODO	-11792
usp	-11793
MARY	-11794
▁atol	-11795
▁hooks	-11796
▁underscore	-11797
▁MESSAGE	-11798
▁MyClass	-11799
DAT	-11800
▁lexer	-11801
Resolve	-11802
▁MILLI	-11803
▁isNot	-11804
:16	-11805
▁2.5	-11806
ocused	-11807
Flush	-11808
ARGET	-11809
▁tgt	-11810
4.1	-11811
=1)	-11812
getattr	-11813
trim	-11814
rgb	-11815
Power	-11816
while	-11817
▁ix	-11818
gorith	-11819
aggreg	-11820
▁grouped	-11821
▁Plan	-11822
launch	-11823
RST	-11824
▁dashboard	-11825
ResultSet	-11826
Heap	-11827
Cor	-11828
>";	-11829
separ	-11830
▁mach	-11831
race	-11832
▁Mapping	-11833
▁annotated	-11834
persistence	-11835
Clock	-11836
▁gzip	-11837
▁populated	-11838
▁0.7	-11839
TableName	-11840
Comments	-11841
Lists	-11842
Alive	-11843
▁cmds	-11844
▁getPosition	-11845
93	-11846
▁communication	-11847
▁Comparable	-11848
INDO	-11849
▁2011	-11850
previous	-11851
▁setString	-11852
opping	-11853
Removed	-11854
▁INPUT	-11855
.2	-11856
formats	-11857
▁videos	-11858
▁FF	-11859
Fore	-11860
▁flip	-11861
▁resume	-11862
finished	-11863
XXXX	-11864
▁Selection	-11865
lename	-11866
▁networks	-11867
PLA	-11868
4.0	-11869
▁capabilities	-11870
}/	-11871
▁---	-11872
▁aClass	-11873
azel	-11874
▁Jar	-11875
ONT	-11876
VIEW	-11877
ih	-11878
▁08	-11879
▁minimal	-11880
▁columnIndex	-11881
▁treat	-11882
ICAL	-11883
substring	-11884
issues	-11885
▁FIL	-11886
▁'3'	-11887
Encode	-11888
▁unmodifiable	-11889
▁getEvent	-11890
▁XMLHttpRequest	-11891
Asc	-11892
SU	-11893
▁gone	-11894
▁Logging	-11895
numbers	-11896
=\"	-11897
▁Kettle	-11898
▁pain	-11899
▁wiki	-11900
chat	-11901
SHA	-11902
-2.	-11903
circle	-11904
plier	-11905
▁ONE	-11906
▁CP	-11907
puter	-11908
▁streaming	-11909
▁Notice	-11910
▁degree	-11911
stable	-11912
problem	-11913
▁EVENT	-11914
▁performed	-11915
ercise	-11916
(!	-11917
sr	-11918
htable	-11919
▁Nested	-11920
Called	-11921
▁mine	-11922
freq	-11923
▁cube	-11924
▁getID	-11925
pag	-11926
void	-11927
▁alarm	-11928
outube	-11929
▁declaring	-11930
▁RGB	-11931
rity	-11932
▁IDs	-11933
Highlight	-11934
($_	-11935
▁reli	-11936
▁copying	-11937
choices	-11938
rx	-11939
▁grant	-11940
▁Clear	-11941
▁autocomplete	-11942
gorithms	-11943
usted	-11944
erspective	-11945
ilon	-11946
ToMany	-11947
AppData	-11948
▁randomly	-11949
▁staff	-11950
▁pointing	-11951
▁METHO	-11952
aren	-11953
▁OnClickListener	-11954
facebook	-11955
calendar	-11956
sa	-11957
Promise	-11958
▁ti	-11959
definition	-11960
DAY	-11961
UTO	-11962
▁grow	-11963
▁gray	-11964
worker	-11965
Counts	-11966
▁collected	-11967
[0];	-11968
Leg	-11969
Resume	-11970
popup	-11971
6.0	-11972
▁getSec	-11973
arge	-11974
▁tokenQueue	-11975
▁conda	-11976
customer	-11977
IA	-11978
▁suitable	-11979
Modification	-11980
▁decl	-11981
EAR	-11982
▁OrderedDict	-11983
▁modifier	-11984
▁Enable	-11985
relative	-11986
Sys	-11987
staff	-11988
▁pane	-11989
Reser	-11990
▁Hive	-11991
'"	-11992
▁hy	-11993
forge	-11994
▁builtin	-11995
▁license	-11996
NaN	-11997
onal	-11998
4:	-11999
hint	-12000
▁alphabet	-12001
▁DT	-12002
▁Incorrect	-12003
oday	-12004
▁JSFiddle	-12005
follow	-12006
▁Same	-12007
▁(0,	-12008
▁{};	-12009
Sdk	-12010
▁Failure	-12011
rm	-12012
epoch	-12013
▁XX	-12014
rac	-12015
CF	-12016
▁emails	-12017
QUI	-12018
▁Url	-12019
templates	-12020
Pred	-12021
predict	-12022
ATTERN	-12023
gradle	-12024
ullet	-12025
ismatch	-12026
writing	-12027
estore	-12028
▁ASP	-12029
▁oracle	-12030
▁setMessage	-12031
▁rmtree	-12032
Increment	-12033
▁providers	-12034
▁robot	-12035
Assignable	-12036
Cached	-12037
odies	-12038
Google	-12039
9'	-12040
▁undo	-12041
enance	-12042
▁ease	-12043
Cloud	-12044
inalg	-12045
Suffix	-12046
▁setStatus	-12047
▁DataSource	-12048
ife	-12049
▁Rob	-12050
Colors	-12051
▁pseudo	-12052
▁MSG	-12053
imizer	-12054
fore	-12055
erated	-12056
ganization	-12057
Implementation	-12058
Toggle	-12059
initialize	-12060
▁derived	-12061
▁assertIsNot	-12062
▁PYTHON	-12063
ActionEvent	-12064
targets	-12065
▁UNKNOWN	-12066
7'	-12067
Exact	-12068
vue	-12069
▁ing	-12070
▁Microsoft	-12071
issue	-12072
▁plug	-12073
▁Gson	-12074
DULE	-12075
avorite	-12076
▁Kind	-12077
▁overhead	-12078
▁providing	-12079
Days	-12080
192.168	-12081
▁detection	-12082
▁offsets	-12083
▁INVALID	-12084
▁effective	-12085
▁setBackground	-12086
▁chrom	-12087
▁worry	-12088
dic	-12089
products	-12090
kind	-12091
▁COMP	-12092
pipe	-12093
▁weather	-12094
=['	-12095
▁LENG	-12096
▁endpoints	-12097
2(	-12098
References	-12099
▁fort	-12100
.</	-12101
▁City	-12102
▁JUnit	-12103
Lng	-12104
▁Charset	-12105
pan	-12106
▁truncate	-12107
4]	-12108
▁LENGTH	-12109
Operand	-12110
handled	-12111
▁Sparse	-12112
▁ball	-12113
▁vers	-12114
Sensor	-12115
charset	-12116
▁pen	-12117
▁approx	-12118
Tester	-12119
▁outcome	-12120
▁Som	-12121
mozilla	-12122
UPDATE	-12123
▁gradle	-12124
▁highly	-12125
▁fld	-12126
uptools	-12127
▁foreach	-12128
▁'1.	-12129
▁articles	-12130
▁getCan	-12131
Existing	-12132
▁workers	-12133
▁Tkinter	-12134
ravity	-12135
regular	-12136
editable	-12137
tm	-12138
▁serv	-12139
="0"	-12140
Persistence	-12141
manifest	-12142
delta	-12143
▁bbox	-12144
anaconda	-12145
Construct	-12146
▁asyncio	-12147
Cipher	-12148
ior	-12149
▁oid	-12150
How	-12151
beta	-12152
▁wont	-12153
▁Jan	-12154
▁volumes	-12155
▁StringUtil	-12156
▁Place	-12157
▁MM	-12158
CENT	-12159
▁temperature	-12160
▁getProperties	-12161
Terms	-12162
▁Emb	-12163
▁'-	-12164
encv	-12165
queryset	-12166
quared	-12167
▁Values	-12168
SHORT	-12169
stone	-12170
▁stride	-12171
▁56	-12172
▁aria	-12173
Seg	-12174
001	-12175
environment	-12176
COLOR	-12177
Tile	-12178
▁optimizer	-12179
▁zk	-12180
▁getActive	-12181
conv	-12182
Allocation	-12183
igration	-12184
▁topology	-12185
ordion	-12186
▁rf	-12187
▁websocket	-12188
▁Normal	-12189
▁firstName	-12190
Win	-12191
SPONSE	-12192
▁removes	-12193
▁firewall	-12194
▁mav	-12195
▁whereas	-12196
▁isSelected	-12197
▁connecting	-12198
:59	-12199
▁JRE	-12200
▁objs	-12201
IsSet	-12202
ABEL	-12203
Inventory	-12204
▁scheduled	-12205
▁IPv	-12206
ountries	-12207
▁naming	-12208
▁everyone	-12209
Shift	-12210
▁conven	-12211
dynamic	-12212
▁mr	-12213
▁addCallback	-12214
▁BUT	-12215
MY	-12216
Launcher	-12217
truct	-12218
enus	-12219
▁alg	-12220
Sn	-12221
ratio	-12222
▁appended	-12223
▁viol	-12224
▁vpc	-12225
▁solver	-12226
▁quiet	-12227
Previous	-12228
▁BIG	-12229
▁opin	-12230
▁Azure	-12231
Subscription	-12232
%3	-12233
▁integrate	-12234
Kit	-12235
tol	-12236
▁isDirectory	-12237
Radio	-12238
▁regions	-12239
▁injected	-12240
▁specifying	-12241
[^	-12242
("<	-12243
sizes	-12244
▁FALSE	-12245
▁LINE	-12246
ITS	-12247
▁selects	-12248
cles	-12249
▁ABC	-12250
▁StopIteration	-12251
iph	-12252
▁Ignore	-12253
▁Inside	-12254
TestUtils	-12255
:25	-12256
fname	-12257
▁regardless	-12258
▁escaped	-12259
▁getServer	-12260
▁ItemStack	-12261
▁AM	-12262
▁Suppose	-12263
▁libs	-12264
▁understood	-12265
▁air	-12266
oda	-12267
Capt	-12268
emy	-12269
Mgr	-12270
▁cleaner	-12271
UserId	-12272
▁tokenTypes	-12273
endpoint	-12274
▁domains	-12275
Coord	-12276
comb	-12277
onload	-12278
CEPTION	-12279
esture	-12280
}]	-12281
ENCE	-12282
▁standalone	-12283
▁iteritems	-12284
Utf	-12285
▁METHOD	-12286
▁getQuery	-12287
▁eventually	-12288
WEB	-12289
▁har	-12290
▁ability	-12291
Make	-12292
▁Further	-12293
_5	-12294
RESULT	-12295
vanced	-12296
threads	-12297
Force	-12298
▁mill	-12299
▁lc	-12300
EVENT	-12301
Insn	-12302
▁transformation	-12303
ini	-12304
▁srid	-12305
▁CountDownLatch	-12306
▁Looking	-12307
▁extracted	-12308
integ	-12309
▁remains	-12310
▁regexp	-12311
Ep	-12312
▁slower	-12313
Shadow	-12314
▁returncode	-12315
▁lookups	-12316
▁retries	-12317
UCT	-12318
gate	-12319
REEN	-12320
▁Volume	-12321
Linked	-12322
UBLIC	-12323
prise	-12324
▁hoping	-12325
▁Axis	-12326
▁Twitter	-12327
=1,	-12328
▁PER	-12329
▁interpret	-12330
SD	-12331
▁Super	-12332
ictions	-12333
▁topics	-12334
LOAT	-12335
1000	-12336
▁sequences	-12337
▁indicate	-12338
olut	-12339
▁disc	-12340
▁getRem	-12341
▁wallet	-12342
▁modifiers	-12343
Like	-12344
elery	-12345
partial	-12346
rele	-12347
City	-12348
lg	-12349
▁Scope	-12350
▁PKG	-12351
▁NOTE	-12352
AMETER	-12353
▁Processing	-12354
▁msvs	-12355
▁ldap	-12356
MAND	-12357
▁[2,	-12358
sdk	-12359
iator	-12360
ositive	-12361
aph	-12362
▁packed	-12363
▁advanced	-12364
bu	-12365
▁Loading	-12366
ARG	-12367
▁0);	-12368
-7	-12369
▁jpg	-12370
="${	-12371
▁rend	-12372
Round	-12373
▁DOMAIN	-12374
selenium	-12375
▁boost	-12376
colors	-12377
▁till	-12378
UTE	-12379
▁Handle	-12380
:17	-12381
▁buffered	-12382
▁Jackson	-12383
▁USE	-12384
upper	-12385
Self	-12386
edis	-12387
▁traverse	-12388
▁multipart	-12389
standing	-12390
▁splits	-12391
ONException	-12392
▁refs	-12393
yr	-12394
RGB	-12395
Ca	-12396
▁obs	-12397
animate	-12398
▁notifications	-12399
▁Say	-12400
▁FAIL	-12401
▁Activ	-12402
▁100,	-12403
NSION	-12404
isc	-12405
orch	-12406
(5	-12407
sha	-12408
Your	-12409
NodeId	-12410
rivilege	-12411
fragment	-12412
▁SERVICE	-12413
▁rtol	-12414
▁setSource	-12415
lim	-12416
reat	-12417
▁Dependency	-12418
="1"	-12419
▁databases	-12420
▁Layer	-12421
hd	-12422
([[	-12423
removeClass	-12424
▁birth	-12425
▁frequ	-12426
Getter	-12427
▁BT	-12428
iset	-12429
▁rp	-12430
rq	-12431
▁MongoDB	-12432
repository	-12433
scene	-12434
▁Calling	-12435
assoc	-12436
▁ug	-12437
▁NonNull	-12438
▁errorMessage	-12439
fol	-12440
▁getW	-12441
▁exam	-12442
Serial	-12443
oj	-12444
▁bookmark	-12445
▁analyzer	-12446
▁Signature	-12447
▁AnsibleModule	-12448
:50	-12449
▁Dict	-12450
▁issubclass	-12451
=$	-12452
▁setInt	-12453
▁potential	-12454
▁\"	-12455
getValue	-12456
inue	-12457
▁Off	-12458
datas	-12459
▁ClassNotFound	-12460
▁PM	-12461
▁inserting	-12462
:</	-12463
\":	-12464
▁scopes	-12465
tensorflow	-12466
mk	-12467
▁setCurrent	-12468
war	-12469
▁Db	-12470
▁ending	-12471
COMP	-12472
▁mi	-12473
ley	-12474
▁Section	-12475
Rpc	-12476
▁checkArgument	-12477
▁scen	-12478
valueOf	-12479
▁Chat	-12480
pla	-12481
▁Validate	-12482
windows	-12483
▁Bound	-12484
▁makedirs	-12485
ecessarily	-12486
exports	-12487
▁hasMore	-12488
periment	-12489
▁addChild	-12490
▁evaluation	-12491
▁totally	-12492
▁junit	-12493
Deleted	-12494
▁inflate	-12495
▁portion	-12496
stock	-12497
oubles	-12498
archive	-12499
▁LIST	-12500
▁Keyboard	-12501
LIMIT	-12502
ithmetic	-12503
▁LOCAL	-12504
▁discovery	-12505
setAttribute	-12506
Preview	-12507
ROW	-12508
▁ftp	-12509
▁applies	-12510
}>	-12511
▁caught	-12512
▁checkout	-12513
▁spy	-12514
▁Embed	-12515
▁Switch	-12516
ads	-12517
=0,	-12518
)\	-12519
Matching	-12520
▁gz	-12521
▁detailed	-12522
-20	-12523
▁dash	-12524
▁Writer	-12525
Maps	-12526
▁trailing	-12527
ndi	-12528
▁extrem	-12529
▁currentToken	-12530
▁mappings	-12531
▁MD	-12532
▁fileno	-12533
▁tracking	-12534
▁Attempt	-12535
Employee	-12536
▁getDate	-12537
Configs	-12538
▁GetTypeId	-12539
Fs	-12540
▁́	-12541
ITLE	-12542
Invo	-12543
Supplier	-12544
bidden	-12545
notify	-12546
preview	-12547
▁newer	-12548
▁missed	-12549
Realm	-12550
▁Widget	-12551
▁INIT	-12552
Dom	-12553
:\\	-12554
▁amazon	-12555
▁ndarray	-12556
expect	-12557
▁candidates	-12558
▁bytecode	-12559
commons	-12560
ORDER	-12561
ManagerFactory	-12562
▁establish	-12563
IALI	-12564
Country	-12565
▁sendMessage	-12566
Skip	-12567
Schedule	-12568
▁funct	-12569
BLOCK	-12570
Checksum	-12571
filtered	-12572
AAAA	-12573
▁Cancel	-12574
▁[],	-12575
UNCTION	-12576
▁artist	-12577
FD	-12578
▁'4	-12579
100,	-12580
▁scratch	-12581
▁spot	-12582
▁absolut	-12583
Facade	-12584
▁exponent	-12585
Team	-12586
▁mostly	-12587
Workspace	-12588
▁Segment	-12589
azelcast	-12590
▁gap	-12591
IX	-12592
▁DA	-12593
▁transactions	-12594
▁LocalDate	-12595
▁English	-12596
▁viewport	-12597
▁hr	-12598
Greater	-12599
kernel	-12600
OUTPUT	-12601
▁convertView	-12602
▁getTitle	-12603
-30	-12604
▁amp	-12605
outh	-12606
▁ForeignKey	-12607
som	-12608
▁allowing	-12609
Conflict	-12610
:18	-12611
lsx	-12612
Finish	-12613
Am	-12614
▁getCache	-12615
▁jdk	-12616
igure	-12617
Reduce	-12618
loyees	-12619
▁appendChild	-12620
Mat	-12621
processing	-12622
▁students	-12623
referred	-12624
Payment	-12625
AccessorImpl	-12626
▁ft	-12627
▁extent	-12628
▁ta	-12629
Zoom	-12630
▁caption	-12631
▁indicator	-12632
TOCOL	-12633
▁finder	-12634
▁receives	-12635
/"	-12636
ATIVE	-12637
>';	-12638
Pause	-12639
Ap	-12640
▁overriding	-12641
icket	-12642
isions	-12643
▁2010	-12644
Photo	-12645
numeric	-12646
rength	-12647
▁QtCore	-12648
▁Commit	-12649
▁iOS	-12650
destroy	-12651
rices	-12652
footer	-12653
▁INTEGER	-12654
▁remainder	-12655
▁slave	-12656
JSONObject	-12657
▁100.0	-12658
▁analyze	-12659
▁answered	-12660
▁pn	-12661
ada	-12662
▁dmp	-12663
Compare	-12664
▁latter	-12665
▁wraps	-12666
▁dto	-12667
lator	-12668
▁SECONDS	-12669
▁continuous	-12670
pub	-12671
WebView	-12672
ORTED	-12673
▁crashes	-12674
InstanceId	-12675
elect	-12676
ViewHolder	-12677
▁signals	-12678
ipv	-12679
▁mocked	-12680
00000002	-12681
3.6/	-12682
Logging	-12683
prite	-12684
But	-12685
▁Duplicate	-12686
exact	-12687
▁GB	-12688
▁CharField	-12689
▁Yarn	-12690
▁pathname	-12691
retty	-12692
WIDTH	-12693
Roles	-12694
dst	-12695
▁getList	-12696
OnClickListener	-12697
▁fieldId	-12698
Into	-12699
poll	-12700
▁onError	-12701
land	-12702
▁helped	-12703
▁approaches	-12704
▁commented	-12705
▁natural	-12706
▁expl	-12707
Cnt	-12708
compat	-12709
urtle	-12710
HR	-12711
estig	-12712
▁cool	-12713
ORMAL	-12714
▁unnecessary	-12715
logic	-12716
Procedure	-12717
Numeric	-12718
ships	-12719
mobile	-12720
▁Feed	-12721
▁CHAR	-12722
INSTANCE	-12723
Needed	-12724
ucene	-12725
ognition	-12726
▁Invocation	-12727
TYPES	-12728
▁five	-12729
▁512	-12730
▁RESULT	-12731
Aggregator	-12732
▁BU	-12733
Que	-12734
Jobs	-12735
▁childNodes	-12736
▁uninstall	-12737
▁keyspace	-12738
255	-12739
bing	-12740
(2,	-12741
▁Serial	-12742
▁copies	-12743
▁getPart	-12744
ubble	-12745
recationWarning	-12746
Low	-12747
estamps	-12748
identity	-12749
Mixin	-12750
▁strides	-12751
▁fetching	-12752
▁convention	-12753
▁20,	-12754
▁"_	-12755
▁ml	-12756
threshold	-12757
▁imagine	-12758
Drawer	-12759
▁newly	-12760
Configured	-12761
OW	-12762
▁webdriver	-12763
▁MenuItem	-12764
star	-12765
Plot	-12766
subnet	-12767
-16	-12768
▁stated	-12769
deleted	-12770
▁bob	-12771
atile	-12772
stdin	-12773
▁Support	-12774
▁inherited	-12775
▁cron	-12776
▁TRA	-12777
▁leaves	-12778
▁respective	-12779
▁Free	-12780
Behavior	-12781
▁macro	-12782
▁developers	-12783
▁velocity	-12784
:19	-12785
▁configs	-12786
ags	-12787
▁lastName	-12788
Detector	-12789
▁Expect	-12790
concurrent	-12791
▁gender	-12792
▁Dest	-12793
clause	-12794
shadow	-12795
▁Constructor	-12796
abling	-12797
▁39	-12798
▁LD	-12799
▁TestSuite	-12800
▁Track	-12801
▁Apple	-12802
▁Paint	-12803
Complex	-12804
▁controllers	-12805
▁somewhat	-12806
Streams	-12807
▁simulate	-12808
▁recognize	-12809
RequestBuilder	-12810
Buttons	-12811
ea	-12812
AttemptId	-12813
proj	-12814
ABASE	-12815
▁expiration	-12816
▁NU	-12817
▁Gtk	-12818
▁isInitialized	-12819
Margin	-12820
▁wrapping	-12821
WITH	-12822
▁JMS	-12823
▁Ruby	-12824
▁Vertex	-12825
▁episode	-12826
▁ServiceResponse	-12827
cross	-12828
▁pointers	-12829
▁bytearray	-12830
▁independent	-12831
▁│	-12832
▁1.2	-12833
▁posix	-12834
/3	-12835
pending	-12836
Expect	-12837
aque	-12838
charm	-12839
▁interest	-12840
Compound	-12841
fun	-12842
▁setD	-12843
▁Listener	-12844
>)	-12845
▁unfortunately	-12846
amage	-12847
Fill	-12848
▁Der	-12849
eers	-12850
▁study	-12851
▁fre	-12852
ora	-12853
obox	-12854
bles	-12855
▁gs	-12856
Mount	-12857
800	-12858
▁invert	-12859
Psi	-12860
▁PyQt	-12861
▁slides	-12862
()));	-12863
▁alignment	-12864
cookies	-12865
▁isAssignable	-12866
▁IntelliJ	-12867
▁shardId	-12868
AF	-12869
yaml	-12870
AccessException	-12871
▁Required	-12872
($(	-12873
▁MouseEvent	-12874
Characters	-12875
icks	-12876
▁pivot	-12877
▁configurations	-12878
nextInt	-12879
▁Arch	-12880
▁season	-12881
'):	-12882
need	-12883
▁addTest	-12884
nos	-12885
▁elast	-12886
▁chance	-12887
sembly	-12888
▁/=	-12889
Else	-12890
literal	-12891
dll	-12892
▁Side	-12893
▁icons	-12894
▁stackoverflow	-12895
phan	-12896
▁infos	-12897
▁zz	-12898
rum	-12899
▁Caused	-12900
▁actionGet	-12901
notated	-12902
▁awt	-12903
▁ParseError	-12904
▁instring	-12905
▁templ	-12906
oval	-12907
▁75	-12908
▁Reading	-12909
▁calculations	-12910
▁Codec	-12911
▁urlopen	-12912
Horizontal	-12913
▁skbaddr	-12914
ris	-12915
:9	-12916
▁frameworks	-12917
AE	-12918
cond	-12919
iversal	-12920
▁FAILED	-12921
Handlers	-12922
direction	-12923
▁consistent	-12924
DR	-12925
BUFFER	-12926
▁setSize	-12927
nostic	-12928
▁MULT	-12929
▁Literal	-12930
▁nonce	-12931
▁lastIndexOf	-12932
▁doubleValue	-12933
ponds	-12934
▁EditText	-12935
▁"3"	-12936
▁WEB	-12937
▁MAP	-12938
getInstance	-12939
thead	-12940
▁'$	-12941
orient	-12942
▁Kafka	-12943
square	-12944
Correct	-12945
acl	-12946
CharField	-12947
▁applying	-12948
GC	-12949
▁downloading	-12950
diag	-12951
▁getLabel	-12952
▁Attributes	-12953
orders	-12954
Nav	-12955
▁Zero	-12956
Commands	-12957
Containing	-12958
▁getElementsBy	-12959
Calc	-12960
▁Docker	-12961
▁javadoc	-12962
.0.1	-12963
Board	-12964
▁Clone	-12965
▁subsequent	-12966
▁nam	-12967
▁.5	-12968
▁Blob	-12969
comparison	-12970
findViewById	-12971
▁ints	-12972
▁–	-12973
Addresses	-12974
because	-12975
▁getCode	-12976
bat	-12977
Bridge	-12978
▁4)	-12979
▁COUNT	-12980
▁OFF	-12981
dense	-12982
HashCode	-12983
LOGGER	-12984
9"	-12985
orem	-12986
▁OPEN	-12987
selves	-12988
▁claim	-12989
▁swing	-12990
ONLY	-12991
▁intervals	-12992
Capture	-12993
▁Specific	-12994
mn	-12995
ung	-12996
▁Var	-12997
▁chdir	-12998
▁dll	-12999
timeit	-13000
ampler	-13001
▁verified	-13002
▁REG	-13003
etes	-13004
iq	-13005
oted	-13006
▁thous	-13007
64_	-13008
▁qualifier	-13009
▁heav	-13010
▁0-9	-13011
▁Connector	-13012
▁replication	-13013
▁transformer	-13014
asm	-13015
nock	-13016
Backup	-13017
▁Deserialize	-13018
ponses	-13019
▁opinion	-13020
(()	-13021
▁onload	-13022
ico	-13023
URN	-13024
berry	-13025
▁MediaType	-13026
letter	-13027
Ev	-13028
▁RET	-13029
▁rgba	-13030
UserName	-13031
▁svc	-13032
▁DataType	-13033
▁ten	-13034
▁Period	-13035
Animator	-13036
▁allocated	-13037
▁Similar	-13038
▁notNullValue	-13039
gettext	-13040
1-	-13041
▁fk	-13042
BM	-13043
▁Sol	-13044
LONG	-13045
▁pwd	-13046
Autowired	-13047
uting	-13048
▁Describe	-13049
[@	-13050
CLU	-13051
▁among	-13052
monitor	-13053
▁Hence	-13054
▁12,	-13055
floor	-13056
ardown	-13057
▁Country	-13058
▁uom	-13059
▁EJB	-13060
Bin	-13061
ici	-13062
Ranges	-13063
Units	-13064
▁localName	-13065
/5	-13066
▁viewer	-13067
mbolic	-13068
▁ai	-13069
▁HH	-13070
########	-13071
▁Diff	-13072
Sy	-13073
FieldType	-13074
="{{	-13075
▁talking	-13076
▁unsupported	-13077
▁OUTPUT	-13078
▁released	-13079
▁publisher	-13080
▁jobId	-13081
categories	-13082
CLOSE	-13083
Sem	-13084
▁Anyway	-13085
▁readlines	-13086
▁ObjectMapper	-13087
▁constructors	-13088
(2)	-13089
▁mkdirs	-13090
▁captured	-13091
▁getDescriptor	-13092
antom	-13093
▁triv	-13094
den	-13095
▁iris	-13096
▁Plot	-13097
define	-13098
▁normpath	-13099
▁lack	-13100
▁happy	-13101
▁hardware	-13102
▁absolutely	-13103
▁gd	-13104
Defaults	-13105
ooled	-13106
▁throwable	-13107
strategy	-13108
▁pagination	-13109
Produ	-13110
▁mergeFrom	-13111
SPE	-13112
hour	-13113
▁Updated	-13114
▁roots	-13115
▁Export	-13116
entities	-13117
distribution	-13118
Descriptors	-13119
oll	-13120
({'	-13121
Deployment	-13122
Original	-13123
Broadcast	-13124
▁datatype	-13125
▁operating	-13126
▁fb	-13127
▁Fr	-13128
▁dog	-13129
▁Dynam	-13130
▁Gradle	-13131
coords	-13132
STREAM	-13133
▁specs	-13134
▁fx	-13135
vation	-13136
▁superclass	-13137
▁Descriptor	-13138
Share	-13139
▁Complex	-13140
▁Mar	-13141
setState	-13142
▁addListener	-13143
▁VARCHAR	-13144
)(	-13145
▁Explorer	-13146
eroku	-13147
("\	-13148
▁modern	-13149
▁Addition	-13150
▁getAttributes	-13151
▁replica	-13152
▁Parcel	-13153
▁upgrad	-13154
javase	-13155
▁nest	-13156
credentials	-13157
oauth	-13158
▁fieldType	-13159
▁NotFound	-13160
▁DIR	-13161
▁compatibility	-13162
▁indicates	-13163
SESSION	-13164
DIRECT	-13165
▁BytesIO	-13166
Connections	-13167
leaf	-13168
RESH	-13169
CHEMA	-13170
▁EXTRA	-13171
ROP	-13172
▁listing	-13173
Cr	-13174
▁HEAD	-13175
.000	-13176
▁Prob	-13177
Quote	-13178
▁represented	-13179
▁soap	-13180
▁datasets	-13181
▁403	-13182
WRITE	-13183
ifying	-13184
FILES	-13185
▁manner	-13186
Alt	-13187
▁putAll	-13188
deps	-13189
▁intersect	-13190
▁Three	-13191
constant	-13192
Idle	-13193
Widgets	-13194
▁subtype	-13195
▁longValue	-13196
▁Skip	-13197
Channels	-13198
inject	-13199
▁featureID	-13200
icates	-13201
Vol	-13202
▁basis	-13203
▁performing	-13204
▁rsp	-13205
mtime	-13206
▁"4	-13207
▁fq	-13208
▁MA	-13209
▁addAttribute	-13210
▁backslash	-13211
▁FIN	-13212
▁65	-13213
strict	-13214
outine	-13215
RELEASE	-13216
XContent	-13217
METHOD	-13218
arios	-13219
▁Backbone	-13220
ippets	-13221
▁forName	-13222
ires	-13223
CREATE	-13224
includes	-13225
▁Users	-13226
standard	-13227
▁Having	-13228
GUI	-13229
▁coeff	-13230
isset	-13231
mo	-13232
▁csrf	-13233
PR	-13234
tb	-13235
▁_.	-13236
what	-13237
▁pod	-13238
/2/	-13239
▁0.,	-13240
Extractor	-13241
▁JNI	-13242
▁ko	-13243
▁CENTER	-13244
tax	-13245
three	-13246
Frames	-13247
▁[...	-13248
▁getPage	-13249
Align	-13250
▁Errors	-13251
▁exports	-13252
REC	-13253
▁3.5	-13254
▁Upload	-13255
▁mimetype	-13256
eve	-13257
▁'</	-13258
FACT	-13259
▁fetched	-13260
▁Structure	-13261
▁'200	-13262
▁assertion	-13263
Iterable	-13264
▁Body	-13265
decoder	-13266
ura	-13267
:#	-13268
▁MY	-13269
▁relatively	-13270
photo	-13271
▁AA	-13272
Overlay	-13273
▁gdb	-13274
▁supplied	-13275
▁argparse	-13276
▁STATIC	-13277
cpp	-13278
Freq	-13279
Consum	-13280
▁getInputStream	-13281
▁nargs	-13282
oped	-13283
▁rounding	-13284
-3.	-13285
REF	-13286
andles	-13287
Cycle	-13288
---+	-13289
▁internally	-13290
▁rr	-13291
▁partitions	-13292
TESTS	-13293
stub	-13294
▁fw	-13295
guid	-13296
Hidden	-13297
!");	-13298
Nullable	-13299
▁getNew	-13300
▁moveTo	-13301
▁mg	-13302
▁availability	-13303
▁automatic	-13304
▁Bus	-13305
▁JTable	-13306
▁marks	-13307
Cols	-13308
▁setImage	-13309
lighter	-13310
▁spinner	-13311
Validate	-13312
titles	-13313
▁Fields	-13314
Inline	-13315
VS	-13316
oting	-13317
quis	-13318
Defined	-13319
▁taskId	-13320
▁Typed	-13321
utive	-13322
Restr	-13323
▁turned	-13324
▁3000	-13325
parsed	-13326
Steps	-13327
UD	-13328
▁sales	-13329
Navigation	-13330
negative	-13331
TextArea	-13332
isible	-13333
▁07	-13334
Nan	-13335
▁Expr	-13336
Publisher	-13337
except	-13338
▁04	-13339
VED	-13340
▁usual	-13341
▁59	-13342
▁mgr	-13343
▁lstrip	-13344
els	-13345
▁Stage	-13346
dirname	-13347
▁avatar	-13348
▁GWT	-13349
▁49	-13350
▁achieved	-13351
▁rely	-13352
▁profiles	-13353
proper	-13354
▁breakpoint	-13355
Equ	-13356
▁compose	-13357
▁POS	-13358
encoder	-13359
▁Enc	-13360
▁typically	-13361
inx	-13362
ighbors	-13363
▁SSH	-13364
▁outline	-13365
Signal	-13366
▁crypto	-13367
▁para	-13368
▁ActiveMQ	-13369
▁6.0	-13370
▁Div	-13371
▁subclasses	-13372
Std	-13373
Hits	-13374
▁THE	-13375
▁neutron	-13376
elet	-13377
▁postgres	-13378
▁mob	-13379
▁fg	-13380
aken	-13381
jspx	-13382
▁invoking	-13383
▁Dr	-13384
GRA	-13385
▁rebuild	-13386
▁delivery	-13387
▁Lambda	-13388
COND	-13389
RICK	-13390
▁nums	-13391
▁DOUBLE	-13392
ToOne	-13393
usable	-13394
▁TESTFN	-13395
▁fires	-13396
▁oo	-13397
▁doct	-13398
▁Func	-13399
Buffered	-13400
▁school	-13401
=2	-13402
itize	-13403
▁assertIsNotNone	-13404
Cat	-13405
▁crc	-13406
Generate	-13407
▁gold	-13408
▁REMO	-13409
▁"3	-13410
▁innerHTML	-13411
}.	-13412
▁Tools	-13413
▁Must	-13414
▁unix	-13415
▁invol	-13416
▁];	-13417
generic	-13418
▁friends	-13419
apk	-13420
-8"?>	-13421
bie	-13422
aping	-13423
ygote	-13424
▁lose	-13425
utations	-13426
'\	-13427
▁Writable	-13428
▁retrieving	-13429
▁Increment	-13430
▁NODE	-13431
partner	-13432
▁putExtra	-13433
▁LinkedHashMap	-13434
▁Gen	-13435
▁mn	-13436
▁setB	-13437
warn	-13438
BufferSize	-13439
▁forgot	-13440
▁eng	-13441
▁sklearn	-13442
adapter	-13443
▁oldValue	-13444
▁LONG	-13445
▁drawn	-13446
▁millis	-13447
▁yellow	-13448
01234	-13449
▁XY	-13450
▁Allow	-13451
aussian	-13452
tri	-13453
NUM	-13454
DELETE	-13455
FIN	-13456
epage	-13457
LT	-13458
▁frontend	-13459
▁listening	-13460
machine	-13461
▁heading	-13462
▁Pending	-13463
otor	-13464
Plus	-13465
▁elim	-13466
Specification	-13467
:24	-13468
reply	-13469
.00	-13470
▁Private	-13471
guard	-13472
loads	-13473
rapy	-13474
▁incremental	-13475
Assessment	-13476
OTH	-13477
▁bring	-13478
▁hbase	-13479
▁tagName	-13480
▁anno	-13481
▁Worker	-13482
▁SUPER	-13483
▁66	-13484
sch	-13485
▁Shell	-13486
Gradient	-13487
folio	-13488
▁Transfer	-13489
▁CT	-13490
RIPT	-13491
▁setField	-13492
▁getShort	-13493
aspx	-13494
▁Compiler	-13495
▁PB	-13496
▁chan	-13497
▁11,	-13498
Analysis	-13499
izations	-13500
istor	-13501
plevel	-13502
uzzy	-13503
)):	-13504
"?	-13505
▁EE	-13506
Lang	-13507
▁guarantee	-13508
▁ZERO	-13509
▁Mail	-13510
iom	-13511
TENSION	-13512
▁Github	-13513
▁compiling	-13514
▁Received	-13515
▁builds	-13516
▁illust	-13517
▁music	-13518
Patient	-13519
(_	-13520
javax	-13521
▁2;	-13522
Insensitive	-13523
▁camelContext	-13524
▁mandatory	-13525
▁RecyclerView	-13526
RouteBuilder	-13527
▁ram	-13528
className	-13529
▁ignite	-13530
Callable	-13531
▁Overflow	-13532
▁Attach	-13533
▁Obviously	-13534
Parcel	-13535
Workflow	-13536
▁getDel	-13537
▁APPLICATION	-13538
calc	-13539
PG	-13540
▁critical	-13541
envs	-13542
Bindings	-13543
CSS	-13544
▁Under	-13545
SW	-13546
▁hang	-13547
SHOT	-13548
▁elt	-13549
▁HTTPS	-13550
▁deliver	-13551
FIL	-13552
vertical	-13553
▁Sun	-13554
etition	-13555
aver	-13556
otted	-13557
▁apparently	-13558
▁Distribution	-13559
uda	-13560
▁technique	-13561
▁certainly	-13562
Marshaller	-13563
▁javac	-13564
▁fragments	-13565
styles	-13566
▁unsafe	-13567
▁Compute	-13568
▁HttpClient	-13569
Spi	-13570
pow	-13571
▁counters	-13572
Anaconda	-13573
illed	-13574
mapper	-13575
bf	-13576
Actual	-13577
scores	-13578
▁OpenCV	-13579
Remaining	-13580
schedule	-13581
Inputs	-13582
▁wkt	-13583
▁qname	-13584
▁scrapy	-13585
▁ThreadPool	-13586
▁sockets	-13587
-14	-13588
irc	-13589
ky	-13590
Zygote	-13591
Deleter	-13592
▁hive	-13593
▁division	-13594
auge	-13595
-1)	-13596
▁txn	-13597
quantity	-13598
▁particip	-13599
▁alternate	-13600
=0.	-13601
▁JSF	-13602
▁gb	-13603
drive	-13604
▁tips	-13605
allet	-13606
Criterion	-13607
▁effectively	-13608
gif	-13609
▁12.	-13610
puted	-13611
▁MILLISECONDS	-13612
▁rob	-13613
▁MIME	-13614
neg	-13615
▁ads	-13616
training	-13617
Containers	-13618
▁Mini	-13619
▁TProtocol	-13620
Charset	-13621
▁sup	-13622
▁wan	-13623
uro	-13624
▁getApp	-13625
RU	-13626
▁counting	-13627
Positions	-13628
large	-13629
AsStream	-13630
John	-13631
Negative	-13632
erg	-13633
▁sessionId	-13634
▁telling	-13635
prod	-13636
▁fly	-13637
zeros	-13638
']]	-13639
▁getDeclared	-13640
▁getEndpoint	-13641
aurant	-13642
▁CLIENT	-13643
▁selectors	-13644
ades	-13645
▁Opt	-13646
asset	-13647
VT	-13648
initialized	-13649
iser	-13650
▁guest	-13651
▁ugly	-13652
Capabilities	-13653
▁Year	-13654
▁127.0.0.1	-13655
:8080/	-13656
tic	-13657
ians	-13658
▁onChange	-13659
_0_	-13660
▁getPreferred	-13661
ForType	-13662
Propag	-13663
aphore	-13664
▁2]	-13665
FOUND	-13666
▁setTime	-13667
unknown	-13668
▁converts	-13669
▁land	-13670
Instant	-13671
Den	-13672
▁truth	-13673
Lexer	-13674
▁themselves	-13675
Sugg	-13676
Serialization	-13677
LEVEL	-13678
dates	-13679
jac	-13680
▁Again	-13681
▁classname	-13682
▁experi	-13683
▁noise	-13684
▁personal	-13685
ItemSelected	-13686
gap	-13687
▁bins	-13688
▁JSONException	-13689
▁Rx	-13690
▁degrees	-13691
▁marshal	-13692
▁zlib	-13693
shapes	-13694
invoice	-13695
wp	-13696
▁everytime	-13697
▁scrape	-13698
edges	-13699
qt	-13700
▁0]	-13701
▁backwards	-13702
▁FileReader	-13703
(4	-13704
Readable	-13705
Live	-13706
SETTING	-13707
theme	-13708
essaging	-13709
32,	-13710
▁outputStream	-13711
rief	-13712
Alchemy	-13713
Singleton	-13714
▁getIs	-13715
▁ideal	-13716
▁'_	-13717
rofit	-13718
▁Span	-13719
▁suppress	-13720
authorized	-13721
▁setT	-13722
nu	-13723
▁(2	-13724
Edges	-13725
▁Panel	-13726
▁buffers	-13727
analy	-13728
▁Returns	-13729
▁referring	-13730
▁subscriber	-13731
imited	-13732
serial	-13733
.0"	-13734
▁executeQuery	-13735
▁"1.	-13736
ordinates	-13737
▁LinearLayout	-13738
▁apple	-13739
▁Looks	-13740
▁offline	-13741
▁collapse	-13742
▁community	-13743
▁die	-13744
▁passwd	-13745
LEFT	-13746
▁rnd	-13747
▁paper	-13748
▁nodeType	-13749
rupted	-13750
▁fi	-13751
Throws	-13752
▁CONNE	-13753
▁bugs	-13754
good	-13755
Unsigned	-13756
▁suggests	-13757
kill	-13758
▁apt	-13759
▁vectors	-13760
NONE	-13761
▁eth	-13762
quee	-13763
▁Temp	-13764
▁searchResponse	-13765
▁findAll	-13766
▁shards	-13767
▁Rpc	-13768
▁survey	-13769
▁DF	-13770
▁effects	-13771
ssh	-13772
▁readFrom	-13773
▁Publish	-13774
Hierarchy	-13775
▁advise	-13776
▁pic	-13777
▁hd	-13778
yyyy	-13779
▁realize	-13780
Vertical	-13781
▁largest	-13782
▁logo	-13783
▁benefit	-13784
arrays	-13785
MLE	-13786
▁Topic	-13787
▁marshall	-13788
▁columnName	-13789
posts	-13790
defined	-13791
▁TestAll	-13792
Qualifier	-13793
0\	-13794
▁ter	-13795
▁PsiFile	-13796
:22	-13797
sym	-13798
digits	-13799
asl	-13800
apped	-13801
Whitespace	-13802
▁crop	-13803
.1.1	-13804
2.7	-13805
metrics	-13806
Balance	-13807
▁stylesheet	-13808
Working	-13809
▁lag	-13810
▁}}</	-13811
Specific	-13812
say	-13813
▁symlink	-13814
▁respectively	-13815
▁cidr	-13816
uations	-13817
Evaluator	-13818
SerializedSize	-13819
▁Sem	-13820
▁jvm	-13821
▁getters	-13822
▁structures	-13823
ZygoteInit	-13824
1=	-13825
▁clusterState	-13826
Editable	-13827
▁fo	-13828
▁"</	-13829
Actor	-13830
kg	-13831
▁Simply	-13832
▁enters	-13833
▁mvn	-13834
▁getIcon	-13835
kr	-13836
▁prof	-13837
does	-13838
▁polling	-13839
ography	-13840
▁')	-13841
▁gain	-13842
▁getOut	-13843
friend	-13844
▁Disk	-13845
DEBUG	-13846
Concept	-13847
▁getParameters	-13848
▁KeyValue	-13849
Follow	-13850
Tabs	-13851
▁probability	-13852
semble	-13853
lr	-13854
▁NUMBER	-13855
▁replay	-13856
▁expose	-13857
Der	-13858
▁ship	-13859
3</	-13860
▁Animation	-13861
▁deque	-13862
▁overall	-13863
indexes	-13864
orrow	-13865
collections	-13866
▁BUILD	-13867
▁Public	-13868
▁EL	-13869
▁sqlalchemy	-13870
onclick	-13871
▁Metrics	-13872
ulary	-13873
phrase	-13874
[1].	-13875
▁runTest	-13876
AMPLE	-13877
▁distributed	-13878
(1);	-13879
ADDRESS	-13880
Leaf	-13881
▁beg	-13882
Reporter	-13883
▁nsecs	-13884
▁dic	-13885
CastException	-13886
PATTERN	-13887
▁Marker	-13888
Rew	-13889
▁HAS	-13890
BI	-13891
▁401	-13892
Entities	-13893
▁Changing	-13894
▁stamp	-13895
ABC	-13896
▁coded	-13897
:01	-13898
▁getRel	-13899
balance	-13900
best	-13901
vr	-13902
RefCount	-13903
▁lowercase	-13904
▁monkey	-13905
▁kept	-13906
[1],	-13907
600	-13908
▁Camera	-13909
clicked	-13910
>()	-13911
▁??	-13912
testing	-13913
RIGHT	-13914
party	-13915
▁gallery	-13916
▁fits	-13917
NotSupport	-13918
▁gp	-13919
▁FE	-13920
▁representing	-13921
LIB	-13922
▁crypt	-13923
▁fieldname	-13924
▁authenticated	-13925
Substit	-13926
▁gif	-13927
▁sat	-13928
▁tweet	-13929
▁errorCode	-13930
▁tokenize	-13931
ROLL	-13932
RequestMetrics	-13933
drawable	-13934
▁entering	-13935
▁insertion	-13936
▁optimization	-13937
iline	-13938
icol	-13939
MSG	-13940
▁platforms	-13941
locations	-13942
▁unt	-13943
esides	-13944
▁Assign	-13945
▁necessarily	-13946
Offer	-13947
▁2008	-13948
nockout	-13949
▁warehouse	-13950
▁subdir	-13951
▁mocker	-13952
▁animal	-13953
▁Bo	-13954
▁gid	-13955
▁leads	-13956
▁(2,	-13957
Did	-13958
▁CFG	-13959
▁contacts	-13960
▁interaction	-13961
_005	-13962
express	-13963
▁Execute	-13964
normalize	-13965
Shutdown	-13966
iguous	-13967
▁denom	-13968
▁Whenever	-13969
ymorph	-13970
Mer	-13971
hold	-13972
▁toUpperCase	-13973
▁wc	-13974
collapse	-13975
NING	-13976
PAGE	-13977
lassfish	-13978
▁epsilon	-13979
▁WOR	-13980
▁queues	-13981
aj	-13982
resolved	-13983
▁minus	-13984
quet	-13985
webdriver	-13986
▁customize	-13987
▁tex	-13988
wrapped	-13989
DEVICE	-13990
[])	-13991
▁shorter	-13992
▁GitHub	-13993
▁sz	-13994
▁Mobile	-13995
▁denied	-13996
]{	-13997
86_64	-13998
.");	-13999
Integ	-14000
▁Share	-14001
Minimum	-14002
▁xhr	-14003
▁38	-14004
▁overrides	-14005
▁behave	-14006
Observable	-14007
▁keystore	-14008
Locked	-14009
kl	-14010
rivers	-14011
DIS	-14012
▁quad	-14013
)),	-14014
alive	-14015
:27	-14016
intext	-14017
▁infile	-14018
▁Prov	-14019
▁Dom	-14020
oTime	-14021
nc	-14022
▁hasn	-14023
▁nativeObj	-14024
traction	-14025
pts	-14026
▁TreeMap	-14027
nr	-14028
weet	-14029
mongo	-14030
Printer	-14031
▁Tile	-14032
▁vote	-14033
WE	-14034
▁redund	-14035
▁Logical	-14036
cov	-14037
▁singletonList	-14038
urname	-14039
SyntaxError	-14040
gz	-14041
Quick	-14042
▁About	-14043
1(	-14044
ordinate	-14045
checks	-14046
linux	-14047
>/	-14048
▁Sets	-14049
PB	-14050
books	-14051
▁dataframes	-14052
.4	-14053
recogn	-14054
▁getCanonical	-14055
▁printf	-14056
Cancelled	-14057
▁portal	-14058
ufact	-14059
▁occurrences	-14060
QueryBuilder	-14061
mgr	-14062
ICE	-14063
pixel	-14064
▁Scheduler	-14065
▁Push	-14066
▁pan	-14067
-+	-14068
▁decoding	-14069
Sound	-14070
▁clue	-14071
▁'@	-14072
Demo	-14073
▁JTextField	-14074
▁3"	-14075
xd	-14076
AK	-14077
▁fortios	-14078
orig	-14079
▁Fix	-14080
maybe	-14081
▁bw	-14082
Thrift	-14083
▁0],	-14084
▁STOP	-14085
servations	-14086
Discovery	-14087
%=	-14088
▁Elasticsearch	-14089
▁fixtures	-14090
Preferred	-14091
prompt	-14092
Deserializer	-14093
▁DNS	-14094
▁titles	-14095
SQLException	-14096
▁Created	-14097
▁slots	-14098
APSHOT	-14099
▁"1234	-14100
xt	-14101
▁Poly	-14102
▁getAs	-14103
▁Sync	-14104
▁referencing	-14105
eres	-14106
▁Background	-14107
revision	-14108
▁instantiated	-14109
▁mul	-14110
INIT	-14111
▁initializing	-14112
▁LANG	-14113
▁closes	-14114
started	-14115
▁Added	-14116
▁affected	-14117
▁Relation	-14118
▁VS	-14119
▁puts	-14120
such	-14121
rottle	-14122
-25	-14123
WH	-14124
▁pul	-14125
▁compact	-14126
▁aaa	-14127
▁VISIBLE	-14128
▁getLayout	-14129
Scripts	-14130
rant	-14131
▁mCurrent	-14132
ulo	-14133
▁phrase	-14134
▁studio	-14135
▁ERR	-14136
heritance	-14137
▁knowing	-14138
MockEndpoints	-14139
▁lv	-14140
ImageView	-14141
hadoop	-14142
unity	-14143
asured	-14144
ActionBar	-14145
▁cPtr	-14146
▁sed	-14147
Tracking	-14148
▁algorithms	-14149
▁scaled	-14150
▁tarfile	-14151
▁computation	-14152
▁Company	-14153
▁Namespace	-14154
▁Fs	-14155
▁Router	-14156
▁sav	-14157
▁getProcess	-14158
connections	-14159
wx	-14160
▁Enumeration	-14161
eto	-14162
▁Discovery	-14163
▁charts	-14164
multipart	-14165
▁&=	-14166
▁scatter	-14167
omp	-14168
▁van	-14169
▁54	-14170
contain	-14171
scalar	-14172
Parsing	-14173
▁trivial	-14174
▁dims	-14175
pletable	-14176
▁quoted	-14177
▁setuptools	-14178
▁Malformed	-14179
OFFSET	-14180
asket	-14181
appro	-14182
▁cam	-14183
▁[3,	-14184
LP	-14185
▁pv	-14186
▁itemName	-14187
▁lxml	-14188
▁presentation	-14189
upid	-14190
Toolbar	-14191
▁splitting	-14192
▁alive	-14193
▁gson	-14194
▁linalg	-14195
Topology	-14196
▁clusters	-14197
boxes	-14198
▁Leaf	-14199
ELEMENT	-14200
Representation	-14201
Catalog	-14202
▁gdata	-14203
▁Cipher	-14204
Dot	-14205
▁renders	-14206
review	-14207
▁Extended	-14208
DoesNotExist	-14209
CEPT	-14210
vance	-14211
classpath	-14212
QUAL	-14213
CHECK	-14214
▁fromString	-14215
EditText	-14216
▁coin	-14217
▁Upd	-14218
▁Score	-14219
']['	-14220
iterable	-14221
▁BaseMessages	-14222
▁compound	-14223
')]	-14224
▁'"	-14225
FILTER	-14226
ircuit	-14227
▁xcode	-14228
guide	-14229
▁recon	-14230
mitter	-14231
▁getSupport	-14232
▁setters	-14233
▁typeName	-14234
Framework	-14235
hooks	-14236
▁{...	-14237
▁attempted	-14238
ents	-14239
disable	-14240
▁startIndex	-14241
ultane	-14242
▁(0	-14243
Checkpoint	-14244
Vm	-14245
▁distrib	-14246
▁produced	-14247
▁06	-14248
lon	-14249
increment	-14250
Hours	-14251
visions	-14252
Patch	-14253
[1])	-14254
odash	-14255
aced	-14256
Company	-14257
▁vc	-14258
LINK	-14259
▁termin	-14260
▁Dispatch	-14261
▁Day	-14262
▁PsiExpression	-14263
▁302	-14264
▁Folder	-14265
▁Anaconda	-14266
▁supply	-14267
-1"	-14268
ibl	-14269
▁Deployment	-14270
WER	-14271
Generation	-14272
▁Tags	-14273
iable	-14274
Special	-14275
▁exported	-14276
UAGE	-14277
:32	-14278
▁belong	-14279
▁uploading	-14280
▁chmod	-14281
rown	-14282
▁collision	-14283
Broker	-14284
visibility	-14285
▁Dev	-14286
▁backing	-14287
notification	-14288
▁told	-14289
▁BOO	-14290
certificate	-14291
9/	-14292
Requested	-14293
Buffers	-14294
ContentType	-14295
multip	-14296
▁etag	-14297
▁satisf	-14298
▁confusion	-14299
urse	-14300
▁caps	-14301
▁BB	-14302
▁stable	-14303
▁Results	-14304
▁smtp	-14305
PDF	-14306
▁classification	-14307
▁conj	-14308
Updates	-14309
(-	-14310
▁traffic	-14311
▁che	-14312
redient	-14313
logo	-14314
▁Live	-14315
Rotation	-14316
EDIT	-14317
Allocator	-14318
▁mar	-14319
▁Team	-14320
▁Sales	-14321
▁SHO	-14322
▁Priority	-14323
▁Tried	-14324
▁LayoutInflater	-14325
▁functools	-14326
sf	-14327
▁synchronous	-14328
▁toBytes	-14329
OrBuilder	-14330
255,	-14331
▁mirror	-14332
sto	-14333
spaces	-14334
Patterns	-14335
▁submitting	-14336
▁diagram	-14337
▁repositories	-14338
Controls	-14339
ReturnType	-14340
Acl	-14341
aterm	-14342
▁contr	-14343
▁SK	-14344
PARENT	-14345
.6	-14346
Pick	-14347
ibilities	-14348
▁FB	-14349
perform	-14350
xffff	-14351
avar	-14352
▁Safe	-14353
dummy	-14354
onCreate	-14355
dm	-14356
PACK	-14357
▁itr	-14358
▁regression	-14359
▁Redis	-14360
▁Sy	-14361
eral	-14362
▁vt	-14363
▁POJO	-14364
arness	-14365
▁Inner	-14366
Ipv	-14367
xsl	-14368
dog	-14369
firebase	-14370
repare	-14371
assigned	-14372
▁Additionally	-14373
▁Quick	-14374
▁overridden	-14375
oucher	-14376
▁getOffset	-14377
Checks	-14378
ypi	-14379
▁saves	-14380
prefer	-14381
▁Possible	-14382
▁"5	-14383
Deg	-14384
▁CURRENT	-14385
traceback	-14386
Fact	-14387
▁setBody	-14388
SIG	-14389
istrator	-14390
▁DEC	-14391
lapping	-14392
▁blur	-14393
Registered	-14394
▁MAN	-14395
▁Replay	-14396
pite	-14397
Pull	-14398
▁0.000	-14399
FERENCE	-14400
_10	-14401
▁05	-14402
checker	-14403
▁plural	-14404
-31	-14405
▁endTime	-14406
▁recursively	-14407
▁nullValue	-14408
bitField	-14409
▁joined	-14410
Circle	-14411
▁MR	-14412
:26	-14413
()))	-14414
clip	-14415
▁equality	-14416
:45	-14417
ucer	-14418
▁returnType	-14419
Quantity	-14420
rivileges	-14421
▁isPresent	-14422
5]	-14423
▁CORS	-14424
▁ae	-14425
+)	-14426
uplicates	-14427
▁consists	-14428
▁delim	-14429
▁Break	-14430
▁Trigger	-14431
▁choo	-14432
Hour	-14433
▁timeline	-14434
plots	-14435
▁03	-14436
▁getPl	-14437
deprecated	-14438
Slider	-14439
sur	-14440
▁sing	-14441
▁overlap	-14442
globals	-14443
Temporary	-14444
soap	-14445
▁extending	-14446
ElementException	-14447
▁hon	-14448
callable	-14449
▁Hop	-14450
▁xp	-14451
▁yyyy	-14452
Nanos	-14453
▁toList	-14454
▁effort	-14455
Unicode	-14456
Letter	-14457
▁NameError	-14458
▁tup	-14459
ctrl	-14460
Velocity	-14461
Urls	-14462
urator	-14463
ocode	-14464
into	-14465
▁RPC	-14466
▁lifecycle	-14467
▁TextField	-14468
▁illegal	-14469
▁plots	-14470
Segments	-14471
▁2.7.	-14472
▁Converting	-14473
Logic	-14474
/?	-14475
▁bib	-14476
Targets	-14477
there	-14478
▁serializers	-14479
▁Dig	-14480
Recovery	-14481
▁Pointer	-14482
▁basedir	-14483
▁openerp	-14484
▁early	-14485
Interfaces	-14486
ingu	-14487
▁1</	-14488
ulative	-14489
White	-14490
▁Keys	-14491
Prober	-14492
▁incorrectly	-14493
2015	-14494
ama	-14495
bias	-14496
▁pri	-14497
ornado	-14498
▁inform	-14499
UAL	-14500
▁leaving	-14501
▁fakes	-14502
▁checkState	-14503
phase	-14504
27\	-14505
▁IMP	-14506
Rectangle	-14507
management	-14508
bench	-14509
▁Verify	-14510
▁xsd	-14511
ByteBuffer	-14512
Keyword	-14513
Visual	-14514
▁love	-14515
vors	-14516
▁PrintStream	-14517
▁ksession	-14518
holders	-14519
ega	-14520
▁encaps	-14521
!)	-14522
Interpol	-14523
Parallel	-14524
Dirty	-14525
▁decompress	-14526
▁CHE	-14527
=/	-14528
▁1000000	-14529
▁positional	-14530
mut	-14531
navbar	-14532
▁reduced	-14533
Try	-14534
32_	-14535
▁vpn	-14536
4>	-14537
▁Original	-14538
▁revert	-14539
LOCATION	-14540
returns	-14541
▁vue	-14542
MainActivity	-14543
MARK	-14544
CharArray	-14545
artz	-14546
3.1/	-14547
▁getK	-14548
TestHelper	-14549
Gap	-14550
▁spl	-14551
matched	-14552
▁rawdata	-14553
▁assumes	-14554
▁bld	-14555
ynomial	-14556
tensors	-14557
▁Numpy	-14558
Seed	-14559
64,	-14560
▁triangle	-14561
BL	-14562
Packages	-14563
via	-14564
▁newbie	-14565
istance	-14566
▁wind	-14567
gest	-14568
▁Navig	-14569
64.	-14570
▁cu	-14571
certs	-14572
▁SESSION	-14573
Ticket	-14574
▁increasing	-14575
▁getEx	-14576
▁Express	-14577
▁Master	-14578
:%	-14579
Ordered	-14580
getTime	-14581
▁hashlib	-14582
▁da	-14583
AndSet	-14584
▁alone	-14585
▁appId	-14586
▁Implementation	-14587
▁Geometry	-14588
manage	-14589
▁OBJECT	-14590
Bool	-14591
▁AsyncTask	-14592
material	-14593
Thing	-14594
▁addElement	-14595
▁fall	-14596
▁bz	-14597
coord	-14598
▁accel	-14599
▁explains	-14600
charAt	-14601
+00	-14602
▁dicts	-14603
▁tiles	-14604
▁ClusterState	-14605
dictionary	-14606
▁recipe	-14607
spot	-14608
▁addItem	-14609
▁HEADER	-14610
reason	-14611
▁getClassLoader	-14612
transport	-14613
▁scaling	-14614
▁indentation	-14615
:28	-14616
▁textView	-14617
▁linenum	-14618
Definitions	-14619
▁Parsing	-14620
retch	-14621
▁Jenkins	-14622
▁FOO	-14623
ATEG	-14624
▁Nothing	-14625
▁pressing	-14626
Replication	-14627
StartTime	-14628
3">	-14629
Serializable	-14630
▁getRaw	-14631
▁fan	-14632
▁generics	-14633
(__	-14634
secutive	-14635
dicts	-14636
mapped	-14637
▁1),	-14638
backup	-14639
)}	-14640
▁food	-14641
▁assertArray	-14642
ANNEL	-14643
Here	-14644
PASSWORD	-14645
▁SN	-14646
▁toler	-14647
▁RegExp	-14648
▁diffs	-14649
Chrome	-14650
▁Compare	-14651
▁schemeField	-14652
Retri	-14653
▁setUser	-14654
subprocess	-14655
▁proxies	-14656
▁returnValue	-14657
geometry	-14658
▁verification	-14659
▁PASS	-14660
babel	-14661
GT	-14662
*.	-14663
▁arraylist	-14664
▁PyObject	-14665
DecodeError	-14666
ilest	-14667
15,	-14668
icing	-14669
RequestMapping	-14670
xb	-14671
Hide	-14672
▁getMap	-14673
▁substitute	-14674
MAC	-14675
▁ceil	-14676
▁slic	-14677
()?	-14678
▁acceptable	-14679
▁lbl	-14680
▁credential	-14681
Builders	-14682
▁randn	-14683
Updater	-14684
▁vim	-14685
▁classLoader	-14686
employee	-14687
▁hexdigest	-14688
▁'%	-14689
walk	-14690
▁asp	-14691
▁YES	-14692
▁Sugg	-14693
▁Cr	-14694
▁developed	-14695
▁arm	-14696
▁lengths	-14697
▁getSt	-14698
▁oc	-14699
imators	-14700
▁casting	-14701
TestModel	-14702
xF	-14703
ixmap	-14704
▁inOrder	-14705
▁documented	-14706
▁setKey	-14707
RES	-14708
Terminal	-14709
slot	-14710
▁gulp	-14711
ValuePair	-14712
▁english	-14713
▁Checking	-14714
▁TLS	-14715
▁ignoring	-14716
▁}]	-14717
▁translated	-14718
▁bars	-14719
▁DAY	-14720
▁AtomicInteger	-14721
▁Refresh	-14722
apple	-14723
▁Details	-14724
ithread	-14725
▁spent	-14726
getClass	-14727
mong	-14728
▁Username	-14729
▁getNamespace	-14730
edValue	-14731
▁Ideally	-14732
▁fresh	-14733
htm	-14734
▁involved	-14735
▁Vcs	-14736
▁unsure	-14737
▁attachments	-14738
otlin	-14739
▁secs	-14740
▁alternatives	-14741
-19	-14742
▁Thing	-14743
▁addParameter	-14744
▁Seems	-14745
▁sibling	-14746
▁installer	-14747
SCA	-14748
▁succeeded	-14749
olt	-14750
Digit	-14751
registration	-14752
▁655	-14753
▁equation	-14754
▁Leg	-14755
▁applicable	-14756
Successful	-14757
▁density	-14758
▁writeObject	-14759
▁getI	-14760
▁tempor	-14761
Initialization	-14762
▁floats	-14763
phas	-14764
▁PRIMARY	-14765
Roll	-14766
▁127	-14767
▁writable	-14768
seen	-14769
▁clarify	-14770
ticks	-14771
▁sequential	-14772
▁vl	-14773
▁expired	-14774
▁transformed	-14775
▁strptime	-14776
attery	-14777
Yes	-14778
▁exercise	-14779
OLDER	-14780
▁SOURCE	-14781
SITE	-14782
keyword	-14783
▁100000	-14784
:{	-14785
Scheduled	-14786
undred	-14787
▁deleg	-14788
networks	-14789
tail	-14790
ElementType	-14791
aclass	-14792
▁authorize	-14793
coded	-14794
▁regist	-14795
readLine	-14796
▁association	-14797
Escape	-14798
uber	-14799
LOBAL	-14800
PORTED	-14801
▁ACTIVE	-14802
▁Ge	-14803
▁median	-14804
▁Sometimes	-14805
eness	-14806
▁Include	-14807
tar	-14808
glob	-14809
▁solving	-14810
/,	-14811
▁ContentType	-14812
Tooltip	-14813
plist	-14814
▁Datanode	-14815
:]	-14816
▁guaranteed	-14817
Offsets	-14818
▁detach	-14819
▁phi	-14820
▁ticks	-14821
Pixels	-14822
-13	-14823
aggregate	-14824
Tube	-14825
ragments	-14826
▁deriv	-14827
▁deserialized	-14828
Geo	-14829
▁Removing	-14830
▁propagate	-14831
▁parentheses	-14832
▁okay	-14833
URATION	-14834
COLUMN	-14835
Three	-14836
▁isP	-14837
▁3'	-14838
Additional	-14839
▁interpreted	-14840
▁(/	-14841
▁writeFieldBegin	-14842
▁zipfile	-14843
▁Terminal	-14844
deep	-14845
pyx	-14846
uel	-14847
atermark	-14848
▁BOOLEAN	-14849
Appender	-14850
Charm	-14851
AndView	-14852
▁utcnow	-14853
▁Cor	-14854
▁packets	-14855
chant	-14856
ansion	-14857
▁({	-14858
▁FTP	-14859
decimal	-14860
▁dismiss	-14861
▁holding	-14862
INGLE	-14863
▁getSe	-14864
▁isActive	-14865
▁writeFieldEnd	-14866
▁simultane	-14867
▁ck	-14868
TableModel	-14869
▁Zone	-14870
▁descend	-14871
▁Cms	-14872
▁Expand	-14873
GroupId	-14874
Balancer	-14875
BinaryProtocol	-14876
Calls	-14877
▁late	-14878
▁DAO	-14879
▁Equal	-14880
▁Lazy	-14881
Sig	-14882
▁'3	-14883
pin	-14884
utoff	-14885
▁Collectors	-14886
▁52	-14887
alic	-14888
▁modname	-14889
▁declarations	-14890
------	-14891
SCRIPTION	-14892
▁Produ	-14893
MetaInterface	-14894
Candidate	-14895
▁fft	-14896
[3	-14897
▁occurrence	-14898
Comb	-14899
▁Probably	-14900
Indexes	-14901
Clip	-14902
scheme	-14903
▁CamelContext	-14904
25,	-14905
priority	-14906
▁wp	-14907
▁Vec	-14908
▁Direction	-14909
▁Animal	-14910
iating	-14911
▁datum	-14912
▁Dictionary	-14913
.0/	-14914
▁fav	-14915
▁sentences	-14916
▁straightforward	-14917
Partitions	-14918
▁reproduce	-14919
▁testcase	-14920
utter	-14921
StringBuilder	-14922
reload	-14923
keeper	-14924
ERR	-14925
PEG	-14926
▁calculating	-14927
▁ban	-14928
▁extremely	-14929
▁Recognition	-14930
▁baos	-14931
)){	-14932
▁3.6	-14933
▁800	-14934
▁resid	-14935
▁EnumSet	-14936
bt	-14937
ahoo	-14938
▁DEMO	-14939
▁ACCESS	-14940
opg	-14941
opes	-14942
updates	-14943
Secure	-14944
inci	-14945
▁Preference	-14946
retry	-14947
cid	-14948
INSERT	-14949
youtube	-14950
▁obtained	-14951
"];	-14952
ISS	-14953
qr	-14954
▁—	-14955
▁TreeNode	-14956
▁Netbeans	-14957
="{	-14958
▁xid	-14959
▁concurrency	-14960
Curve	-14961
ListItem	-14962
▁ipsum	-14963
▁...:	-14964
▁110	-14965
▁Typ	-14966
▁nearest	-14967
imized	-14968
▁countDown	-14969
▁inet	-14970
finish	-14971
ATTRIBUTE	-14972
▁ObjectId	-14973
Modifiers	-14974
cam	-14975
▁43	-14976
front	-14977
▁AttributeSet	-14978
▁datasource	-14979
▁NodeList	-14980
▁TOK	-14981
cleanup	-14982
▁Fail	-14983
▁validated	-14984
Pad	-14985
zoom	-14986
Providers	-14987
▁commons	-14988
Rank	-14989
relation	-14990
▁market	-14991
MeasureSpec	-14992
CODING	-14993
▁cordova	-14994
▁courses	-14995
512	-14996
DEN	-14997
SessionFactory	-14998
FFIX	-14999
▁11.	-15000
▁Meteor	-15001
2}	-15002
▁getAggreg	-15003
ACCESS	-15004
":[	-15005
▁Naming	-15006
Extended	-15007
▁spin	-15008
▁CACHE	-15009
Utility	-15010
FAIL	-15011
▁FLAGS	-15012
mag	-15013
VERE	-15014
▁47	-15015
.9	-15016
.10	-15017
▁0.05	-15018
hours	-15019
▁timing	-15020
Quota	-15021
▁supplier	-15022
▁WebView	-15023
IGH	-15024
▁handshake	-15025
arp	-15026
▁RIGHT	-15027
Resolution	-15028
▁VALID	-15029
>");	-15030
buttons	-15031
supp	-15032
▁CHECK	-15033
endo	-15034
▁1.6	-15035
roles	-15036
▁getcwd	-15037
>\	-15038
imitives	-15039
▁manipulation	-15040
▁chk	-15041
Small	-15042
ularity	-15043
▁Texture	-15044
developers	-15045
▁nom	-15046
▁searches	-15047
▁Submit	-15048
▁unwrap	-15049
▁Depending	-15050
oon	-15051
Mediator	-15052
▁1.7	-15053
▁breaking	-15054
▁injector	-15055
▁setOutput	-15056
▁distutils	-15057
Subscriber	-15058
▁AV	-15059
thing	-15060
▁thoughts	-15061
▁confidence	-15062
▁displayName	-15063
▁MED	-15064
▁BAD	-15065
▁tweak	-15066
▁unmarshall	-15067
plain	-15068
Cent	-15069
ingerprint	-15070
strumentation	-15071
▁orderBy	-15072
▁/></	-15073
▁sympy	-15074
▁showIndent	-15075
▁wake	-15076
nx	-15077
PLAY	-15078
Compile	-15079
cases	-15080
Invoke	-15081
Viol	-15082
▁doubt	-15083
Javascript	-15084
HEIGHT	-15085
▁fetchall	-15086
Cart	-15087
▁dlg	-15088
▁vehicle	-15089
news	-15090
▁belongs	-15091
gui	-15092
▁53	-15093
▁multimap	-15094
▁banner	-15095
▁ee	-15096
▁spr	-15097
▁'1234	-15098
tran	-15099
dtemp	-15100
dns	-15101
▁assertNo	-15102
▁interpolation	-15103
▁TBinaryProtocol	-15104
▁getO	-15105
carousel	-15106
▁IOUtils	-15107
▁jsonObject	-15108
▁prim	-15109
▁SAXException	-15110
bn	-15111
.0.0.	-15112
have	-15113
▁addProperty	-15114
PLACE	-15115
Models	-15116
pot	-15117
▁dv	-15118
▁MetaData	-15119
▁Relative	-15120
CLIENT	-15121
MBean	-15122
▁hosted	-15123
▁systemId	-15124
▁setDescription	-15125
exclude	-15126
▁EasyMock	-15127
ipython	-15128
brev	-15129
▁Preferences	-15130
▁Te	-15131
▁hdr	-15132
Templates	-15133
ikit	-15134
stage	-15135
▁performs	-15136
:34	-15137
CUMENT	-15138
▁considering	-15139
ASS	-15140
[3]	-15141
▁Hadoop	-15142
iro	-15143
▁ASTNode	-15144
▁reducer	-15145
▁'';	-15146
▁2-	-15147
▁elsewhere	-15148
QUERY	-15149
▁RAM	-15150
▁NT	-15151
blocking	-15152
TF	-15153
MEDI	-15154
Picture	-15155
LF	-15156
▁navbar	-15157
AccessToken	-15158
▁spatial	-15159
▁provision	-15160
▁fund	-15161
lineno	-15162
▁environments	-15163
▁AES	-15164
▁graphs	-15165
▁"200	-15166
Setter	-15167
▁pdb	-15168
BUTTON	-15169
lets	-15170
uv	-15171
▁street	-15172
Aggregate	-15173
▁NetDevice	-15174
▁switching	-15175
▁PROPERTY	-15176
zA	-15177
▁texts	-15178
▁Scala	-15179
▁bey	-15180
▁memoized	-15181
▁Design	-15182
384	-15183
▁latin	-15184
attempt	-15185
Polygon	-15186
▁machines	-15187
▁reaches	-15188
▁BIGINT	-15189
="0	-15190
3.7/	-15191
'^	-15192
▁newName	-15193
bi	-15194
▁redirects	-15195
connector	-15196
▁Currency	-15197
▁recognized	-15198
:40	-15199
ycopg	-15200
▁thats	-15201
MISSION	-15202
▁optimized	-15203
▁namespaceURI	-15204
inality	-15205
nsecs	-15206
▁dark	-15207
▁ancestor	-15208
Notes	-15209
Calculator	-15210
sqli	-15211
▁getSchema	-15212
-%	-15213
Frameworks	-15214
=3	-15215
▁symm	-15216
▁vrf	-15217
What	-15218
▁beyond	-15219
Anim	-15220
▁FORMAT	-15221
ExecutorService	-15222
▁failUnlessEqual	-15223
▁mIs	-15224
▁BIN	-15225
▁Hashtable	-15226
▁mView	-15227
▁PUBLIC	-15228
bindings	-15229
▁vault	-15230
▁TestAllTypes	-15231
▁observed	-15232
VATE	-15233
/_	-15234
▁Flat	-15235
▁Scene	-15236
▁"@	-15237
('./	-15238
calculate	-15239
▁eu	-15240
▁curious	-15241
▁hg	-15242
▁vary	-15243
▁social	-15244
▁TOP	-15245
mc	-15246
:29	-15247
validator	-15248
▁8859	-15249
▁2</	-15250
atom	-15251
npm	-15252
hind	-15253
▁.2	-15254
▁coerce	-15255
bounds	-15256
▁TIMESTAMP	-15257
SCRIPT	-15258
▁PROJECT	-15259
▁ahead	-15260
▁getDouble	-15261
Watcher	-15262
InBackground	-15263
▁potentially	-15264
▁Workflow	-15265
Servers	-15266
▁insets	-15267
configs	-15268
OTAL	-15269
sections	-15270
/'	-15271
:35	-15272
ocks	-15273
gmail	-15274
/10	-15275
Cfg	-15276
▁ARRAY	-15277
Atom	-15278
▁Setup	-15279
AndVerify	-15280
▁tricky	-15281
ByKey	-15282
▁Define	-15283
▁WebElement	-15284
▁-1.	-15285
▁UInt	-15286
floating	-15287
▁getFont	-15288
▁serviceName	-15289
IndexOutOfBounds	-15290
InMillis	-15291
▁Regular	-15292
lng	-15293
▁grp	-15294
design	-15295
jboss	-15296
DLE	-15297
▁'5	-15298
('\	-15299
ked	-15300
▁perms	-15301
Immutable	-15302
Symbols	-15303
▁stays	-15304
▁IMAGE	-15305
▁SUPERUSER	-15306
▁fancy	-15307
CAP	-15308
vement	-15309
figure	-15310
▁Deferred	-15311
lips	-15312
▁spacing	-15313
▁smallest	-15314
▁dropped	-15315
▁station	-15316
▁tiny	-15317
uetooth	-15318
▁TF	-15319
||	-15320
Lost	-15321
▁46	-15322
anagers	-15323
▁buy	-15324
▁mkdtemp	-15325
Esc	-15326
OPTION	-15327
▁Comb	-15328
▁Keras	-15329
moz	-15330
▁1-	-15331
LEN	-15332
▁History	-15333
▁him	-15334
****************	-15335
▁PIL	-15336
organ	-15337
IMAGE	-15338
qtt	-15339
▁Converter	-15340
▁urlencode	-15341
DY	-15342
▁Redirect	-15343
/2.	-15344
▁interrupted	-15345
▁importer	-15346
▁putInt	-15347
▁HA	-15348
▁RemoteException	-15349
▁threadPool	-15350
builtin	-15351
▁setIcon	-15352
▁yields	-15353
▁TreeSet	-15354
stuff	-15355
React	-15356
flavor	-15357
▁Aff	-15358
consistent	-15359
▁instructor	-15360
▁modes	-15361
▁RequestContext	-15362
arma	-15363
cnt	-15364
Tex	-15365
▁exportLiteral	-15366
▁afterwards	-15367
▁feat	-15368
gc	-15369
▁hw	-15370
▁xl	-15371
▁kafka	-15372
venv	-15373
▁activities	-15374
timezone	-15375
parents	-15376
Accel	-15377
iblings	-15378
mid	-15379
pay	-15380
ban	-15381
▁bid	-15382
▁DialogInterface	-15383
ocs	-15384
▁identifiers	-15385
▁aud	-15386
FACE	-15387
▁wsdl	-15388
HAND	-15389
tomcat	-15390
NETWORK	-15391
rogate	-15392
▁enforce	-15393
[...]
